#pragma once
#include <stdint.h>

// Generated by training/train_predictor.py
// Packed 2-bit ternary weights: 0=zero, 1=-1, 2=+1, 3=reserved.
// ESP32 inference should unpack each code and use add/subtract/skip.

static const float net_0_weight_scale = 0.081950843f;
static const uint32_t net_0_weight_params = 204800u;
static const uint32_t net_0_weight_packed_bytes = 51200u;
static const uint8_t net_0_weight_packed[] = {
  0x40, 0xa1, 0x50, 0xa8, 0x88, 0x04, 0x08, 0x2a, 0x00, 0x01, 0x4a, 0x24, 0x84, 0x44, 0xaa, 0x00, 0x00, 0x40, 0xa1, 0x0a,
  0x40, 0x09, 0x11, 0x0a, 0xa0, 0xa4, 0x00, 0x00, 0x88, 0x12, 0x40, 0x60, 0x01, 0x02, 0x08, 0x08, 0x00, 0x4a, 0x81, 0xaa,
  0x81, 0x40, 0x55, 0x01, 0x85, 0x16, 0xa8, 0x05, 0xa0, 0x90, 0x00, 0x15, 0x28, 0xa0, 0x80, 0x6a, 0x55, 0xa1, 0x50, 0x11,
  0x8a, 0x84, 0x28, 0x00, 0x20, 0x0a, 0x42, 0x01, 0x00, 0x00, 0x0a, 0x00, 0x00, 0x82, 0x00, 0x04, 0x15, 0xaa, 0x02, 0x62,
  0x00, 0x4a, 0x00, 0x02, 0xaa, 0x10, 0xa8, 0x50, 0x40, 0x01, 0x40, 0x14, 0x22, 0x80, 0xaa, 0x02, 0x94, 0x08, 0x54, 0x69,
  0x81, 0x01, 0x48, 0x88, 0x02, 0x86, 0x88, 0x88, 0x01, 0x40, 0x10, 0xaa, 0xa8, 0xaa, 0x82, 0x88, 0x28, 0x22, 0xa0, 0x2a,
  0xa0, 0x04, 0x21, 0x04, 0x55, 0x00, 0x81, 0x50, 0x60, 0x45, 0x54, 0x11, 0x00, 0x82, 0x82, 0x88, 0x14, 0x54, 0x85, 0x00,
  0x2a, 0x81, 0x20, 0x00, 0x20, 0x00, 0xaa, 0xaa, 0xaa, 0xaa, 0x80, 0x00, 0x20, 0x88, 0x1a, 0x04, 0x20, 0x90, 0x04, 0x08,
  0x88, 0x2a, 0x94, 0x80, 0x10, 0x54, 0x05, 0xa4, 0x02, 0x28, 0x05, 0x0a, 0x00, 0x21, 0x00, 0x01, 0x21, 0x00, 0x28, 0x14,
  0x80, 0x42, 0x05, 0x20, 0x50, 0x44, 0xa0, 0xa2, 0x00, 0x90, 0xaa, 0x42, 0x20, 0x80, 0x16, 0x51, 0x04, 0x92, 0x28, 0x96,
  0x50, 0x11, 0x15, 0x00, 0x40, 0x14, 0x80, 0x54, 0x81, 0x02, 0x12, 0xa0, 0x10, 0x94, 0x5a, 0x05, 0xa0, 0x54, 0x81, 0x50,
  0x00, 0x0a, 0x55, 0x0a, 0x10, 0x81, 0x22, 0x00, 0x02, 0x50, 0x80, 0x00, 0x52, 0xa8, 0x04, 0xa0, 0xa2, 0x62, 0x05, 0x54,
  0x00, 0x8a, 0x00, 0x40, 0xa8, 0x51, 0x04, 0xaa, 0x04, 0x62, 0x2a, 0x44, 0x80, 0xaa, 0x82, 0x00, 0x20, 0x20, 0x44, 0x85,
  0x08, 0xa5, 0x50, 0x05, 0x04, 0x0a, 0x01, 0x50, 0x80, 0x2a, 0x84, 0xaa, 0x22, 0x8a, 0x22, 0x81, 0x1a, 0x04, 0x08, 0x54,
  0x15, 0xa8, 0x41, 0x5a, 0x80, 0xaa, 0x10, 0xa0, 0x08, 0x28, 0x19, 0x45, 0x42, 0x55, 0xa0, 0x0a, 0x55, 0x20, 0x94, 0x6a,
  0x0a, 0x00, 0x0a, 0x52, 0x01, 0x20, 0x02, 0x50, 0x05, 0x22, 0xaa, 0x40, 0xa2, 0x82, 0x11, 0x00, 0x54, 0xa8, 0x82, 0xaa,
  0x40, 0xa5, 0xaa, 0x02, 0x15, 0x40, 0x45, 0x54, 0x01, 0x08, 0x00, 0x00, 0x22, 0x56, 0x00, 0x54, 0x94, 0x80, 0x40, 0xa0,
  0x10, 0x40, 0x10, 0x54, 0x08, 0x04, 0x01, 0x40, 0x21, 0x6a, 0x44, 0x10, 0x42, 0x25, 0x00, 0x41, 0x10, 0x04, 0xa8, 0x40,
  0x09, 0x55, 0x04, 0x48, 0x84, 0x1a, 0x00, 0x85, 0x2a, 0x01, 0x42, 0x15, 0xa4, 0x46, 0x05, 0x08, 0x91, 0x2a, 0x80, 0x02,
  0x55, 0x01, 0x51, 0x05, 0xa1, 0x42, 0x01, 0x02, 0x00, 0x08, 0x54, 0x81, 0x56, 0xa9, 0x4a, 0x22, 0x00, 0x00, 0x10, 0x95,
  0x55, 0x54, 0x04, 0x82, 0x2a, 0xaa, 0x22, 0x11, 0x00, 0x86, 0x00, 0x0a, 0x81, 0x00, 0x42, 0xa5, 0x08, 0x0a, 0xaa, 0x10,
  0x00, 0x41, 0x54, 0x80, 0x12, 0x00, 0x00, 0x06, 0x55, 0x20, 0x50, 0x69, 0x04, 0xa0, 0x54, 0x04, 0x20, 0xa0, 0x50, 0x50,
  0xa4, 0x16, 0x12, 0xa0, 0x04, 0x90, 0x28, 0x80, 0xaa, 0x92, 0x00, 0x11, 0x00, 0x00, 0x28, 0x94, 0x44, 0x45, 0xa9, 0x20,
  0x2a, 0x28, 0x55, 0x20, 0x80, 0x14, 0x10, 0x54, 0x54, 0x50, 0x29, 0x04, 0x94, 0x20, 0x2a, 0x40, 0x40, 0x08, 0x02, 0x00,
  0x48, 0x88, 0x40, 0x08, 0x41, 0x40, 0x15, 0x00, 0x8a, 0x00, 0x95, 0x08, 0x88, 0x10, 0x50, 0x58, 0x05, 0x55, 0x01, 0x98,
  0x02, 0x11, 0x62, 0x21, 0x00, 0x00, 0x50, 0x01, 0x04, 0x28, 0x80, 0x48, 0x10, 0x00, 0x10, 0x08, 0x50, 0x20, 0x12, 0x44,
  0x81, 0x02, 0x48, 0x59, 0x15, 0x49, 0x00, 0x08, 0x50, 0x80, 0x14, 0x10, 0x02, 0x52, 0x41, 0xa4, 0x20, 0x00, 0x10, 0x10,
  0x50, 0x45, 0xa2, 0x0a, 0x50, 0x05, 0x14, 0x80, 0x80, 0x92, 0x61, 0x15, 0x04, 0xa1, 0x18, 0x20, 0x00, 0x90, 0x20, 0x52,
  0x15, 0x01, 0x05, 0x08, 0x50, 0x10, 0x48, 0x00, 0xaa, 0x54, 0x01, 0x50, 0x80, 0x22, 0xa2, 0x08, 0x50, 0x04, 0x41, 0x15,
  0x04, 0xa8, 0xa8, 0x00, 0x50, 0x45, 0x15, 0xa0, 0x50, 0xa0, 0x58, 0x08, 0x4a, 0xa1, 0x5a, 0x55, 0x85, 0x06, 0xa2, 0x5a,
  0x15, 0x2a, 0x0a, 0xa1, 0x52, 0x01, 0x62, 0x51, 0x81, 0x40, 0x81, 0x6a, 0x28, 0x00, 0x40, 0x14, 0x00, 0x11, 0x4a, 0x00,
  0xa0, 0x22, 0x0a, 0xa0, 0x00, 0x28, 0x50, 0xa0, 0x54, 0x28, 0x00, 0x28, 0x00, 0x2a, 0x60, 0xa8, 0x04, 0x95, 0x10, 0x80,
  0x0a, 0x00, 0xa4, 0x00, 0x20, 0xa8, 0x0a, 0x20, 0x00, 0x55, 0x01, 0x00, 0x00, 0x10, 0x20, 0x05, 0x08, 0x84, 0x2a, 0x81,
  0x20, 0x01, 0x02, 0x08, 0x00, 0x20, 0x00, 0x28, 0x01, 0xa9, 0x82, 0x82, 0x04, 0x40, 0x81, 0x50, 0x81, 0xaa, 0x00, 0x88,
  0x54, 0x28, 0x11, 0x58, 0x85, 0xa8, 0xaa, 0x0a, 0x40, 0x85, 0x80, 0x02, 0x68, 0x55, 0x55, 0x88, 0x28, 0x84, 0x88, 0x94,
  0xa0, 0x20, 0x05, 0x80, 0x20, 0x8a, 0xa8, 0x46, 0x85, 0xa2, 0x00, 0x22, 0x02, 0x00, 0x02, 0x82, 0x10, 0x08, 0x20, 0xa0,
  0x02, 0x01, 0x20, 0xaa, 0x00, 0x04, 0x04, 0x00, 0x80, 0xaa, 0xaa, 0x08, 0x40, 0x05, 0x42, 0x05, 0x40, 0x28, 0xa8, 0x2a,
  0x84, 0x14, 0x40, 0x20, 0x00, 0x00, 0x14, 0x4a, 0x80, 0x4a, 0x25, 0x48, 0x81, 0x80, 0x0a, 0x02, 0x00, 0xa1, 0x02, 0xa1,
  0x02, 0x08, 0x20, 0x95, 0x08, 0x04, 0xa5, 0x02, 0x08, 0x2a, 0x14, 0x88, 0x04, 0xa2, 0x60, 0x50, 0x00, 0x01, 0x22, 0x12,
  0x08, 0x15, 0x11, 0x22, 0xaa, 0x15, 0x50, 0x41, 0x11, 0x08, 0x0a, 0x01, 0x85, 0xa2, 0x54, 0x15, 0x55, 0x48, 0xa8, 0x68,
  0x8a, 0x18, 0x00, 0x00, 0x81, 0x22, 0x51, 0x41, 0x01, 0x29, 0x20, 0x04, 0x02, 0x10, 0xa0, 0x0a, 0x00, 0x44, 0x55, 0x81,
  0x14, 0xa1, 0x48, 0x00, 0x80, 0x54, 0x80, 0x14, 0x81, 0x0a, 0x80, 0x02, 0x10, 0x8a, 0x11, 0x10, 0x15, 0x04, 0xa0, 0x86,
  0x00, 0x50, 0x85, 0x06, 0x0a, 0x82, 0x55, 0x2a, 0x98, 0xa0, 0x11, 0x82, 0x08, 0x28, 0x80, 0x50, 0xa5, 0x2a, 0x81, 0x06,
  0x14, 0x88, 0x0a, 0x04, 0x04, 0x04, 0x02, 0x00, 0x80, 0x2a, 0xa2, 0x14, 0x00, 0x55, 0x54, 0x00, 0x00, 0x40, 0xa8, 0x21,
  0x40, 0x00, 0x18, 0x05, 0x40, 0x28, 0x20, 0x10, 0x16, 0x10, 0xa1, 0x15, 0x80, 0x50, 0x21, 0x04, 0x22, 0x40, 0xa1, 0x90,
  0x01, 0x48, 0x05, 0x54, 0x20, 0xa8, 0x96, 0x24, 0x06, 0x08, 0x10, 0x01, 0x40, 0x91, 0x0a, 0x54, 0x45, 0x04, 0x01, 0x48,
  0x21, 0x0a, 0x02, 0x54, 0x00, 0x00, 0xa8, 0xaa, 0x54, 0x14, 0x01, 0x52, 0x94, 0x44, 0x0a, 0x00, 0x08, 0x01, 0x55, 0x22,
  0x45, 0xa8, 0x16, 0x8a, 0x08, 0x55, 0x08, 0x40, 0x98, 0x96, 0x01, 0x00, 0x4a, 0x04, 0x45, 0x81, 0x82, 0x0a, 0x54, 0x85,
  0x14, 0x04, 0x04, 0x0a, 0x50, 0x48, 0x85, 0x54, 0x85, 0x15, 0x81, 0x82, 0x48, 0x08, 0x42, 0x54, 0x04, 0x40, 0x54, 0x89,
  0x4a, 0x00, 0x14, 0x00, 0x00, 0x52, 0x45, 0x80, 0x02, 0x14, 0x0a, 0x41, 0x01, 0x08, 0x6a, 0xa0, 0x55, 0xa5, 0x19, 0x95,
  0x40, 0x60, 0x55, 0x0a, 0x08, 0x05, 0x10, 0x8a, 0x20, 0x02, 0x40, 0x81, 0x00, 0x02, 0x08, 0x05, 0xaa, 0x20, 0x54, 0x11,
  0x52, 0xa1, 0x40, 0xa0, 0x12, 0x81, 0x50, 0x00, 0x11, 0xa1, 0xaa, 0x48, 0x15, 0xa8, 0x04, 0x10, 0x80, 0x2a, 0x6a, 0x55,
  0x81, 0x54, 0x45, 0x89, 0x10, 0x0a, 0x12, 0x40, 0x54, 0x68, 0x54, 0x15, 0xa1, 0x02, 0x82, 0x00, 0x04, 0x08, 0x12, 0x14,
  0x25, 0x14, 0xaa, 0x2a, 0x82, 0x40, 0x54, 0x05, 0x50, 0xa0, 0x00, 0x80, 0x14, 0x40, 0x28, 0x28, 0x50, 0x14, 0x81, 0x42,
  0x41, 0xa2, 0xa0, 0x80, 0x88, 0x00, 0x00, 0x0a, 0x01, 0x91, 0x54, 0x28, 0x04, 0xa8, 0x82, 0x08, 0x80, 0x02, 0x54, 0x69,
  0x05, 0x40, 0x04, 0x82, 0x42, 0x20, 0x00, 0x02, 0x8a, 0x89, 0x00, 0x22, 0x00, 0x08, 0x2a, 0x02, 0x00, 0x10, 0xa9, 0x10,
  0xaa, 0xa4, 0x42, 0x05, 0x84, 0x0a, 0x80, 0x48, 0x54, 0x45, 0x15, 0x20, 0x44, 0x48, 0x01, 0x58, 0x05, 0x28, 0x14, 0x05,
  0x0a, 0xa5, 0x40, 0x05, 0x22, 0x20, 0x81, 0x08, 0x00, 0x4a, 0x86, 0x54, 0x00, 0x88, 0x02, 0x08, 0x81, 0x80, 0x22, 0x42,
  0x05, 0x51, 0x04, 0x04, 0x40, 0x84, 0x00, 0x21, 0x00, 0x40, 0xa0, 0xa4, 0x44, 0x00, 0x00, 0x22, 0x50, 0x20, 0x0a, 0x4a,
  0x01, 0x85, 0x08, 0x28, 0x04, 0x00, 0x00, 0x20, 0x45, 0x88, 0x08, 0x60, 0xa0, 0x14, 0x48, 0x08, 0xa8, 0x48, 0x09, 0x95,
  0x22, 0x2a, 0xa0, 0xa2, 0x2a, 0xaa, 0xaa, 0xaa, 0x6a, 0xa0, 0x02, 0xa2, 0x82, 0x2a, 0xaa, 0x08, 0x84, 0x08, 0x02, 0x02,
  0x28, 0x02, 0x80, 0x52, 0x04, 0x51, 0x55, 0x01, 0x51, 0x02, 0x01, 0x00, 0x11, 0x01, 0x89, 0x88, 0xaa, 0x0a, 0x80, 0x02,
  0x02, 0x20, 0x8a, 0xa2, 0xaa, 0x2a, 0x82, 0x00, 0x82, 0x68, 0x14, 0x14, 0x02, 0xa8, 0x0a, 0x2a, 0x40, 0x84, 0xa2, 0x88,
  0x2a, 0x15, 0x00, 0x18, 0x81, 0x40, 0x15, 0x41, 0x05, 0x00, 0x08, 0x00, 0x20, 0x0a, 0x08, 0x0a, 0x06, 0xa0, 0x20, 0x04,
  0x28, 0x45, 0xa0, 0xa4, 0x00, 0x01, 0x15, 0xa8, 0x54, 0x28, 0x12, 0x00, 0x55, 0x80, 0x0a, 0x00, 0xa9, 0x14, 0x22, 0x54,
  0x01, 0x54, 0xa1, 0x42, 0x54, 0x81, 0x80, 0x44, 0xa8, 0x41, 0x20, 0x2a, 0x15, 0x12, 0x62, 0x29, 0x01, 0x28, 0x00, 0x80,
  0x60, 0x60, 0x04, 0xa2, 0x48, 0x01, 0x80, 0x28, 0xa8, 0x4a, 0x01, 0x10, 0x00, 0x20, 0x80, 0x10, 0x20, 0x82, 0x0a, 0x00,
  0x40, 0x00, 0x12, 0x81, 0x8a, 0x56, 0x49, 0xa1, 0x0a, 0xa8, 0x04, 0x29, 0x40, 0x80, 0x10, 0x29, 0x04, 0x41, 0x14, 0x12,
  0x01, 0xa0, 0x10, 0x00, 0x10, 0x62, 0x44, 0x21, 0x08, 0x51, 0x50, 0x21, 0x01, 0x20, 0x50, 0x58, 0x40, 0x08, 0x41, 0x60,
  0x14, 0x09, 0x84, 0x00, 0x50, 0x01, 0x04, 0x50, 0x80, 0x05, 0x0a, 0x00, 0x28, 0xa1, 0x54, 0x60, 0x54, 0x88, 0x00, 0x68,
  0x49, 0x00, 0x02, 0x28, 0x01, 0x28, 0x00, 0x01, 0x85, 0x82, 0x44, 0x20, 0x11, 0x45, 0x20, 0x00, 0xaa, 0x40, 0x48, 0x55,
  0x10, 0x22, 0xa2, 0x00, 0x02, 0x44, 0x44, 0x48, 0x41, 0x81, 0x22, 0x00, 0x00, 0x01, 0x50, 0x00, 0x04, 0x04, 0x40, 0xa1,
  0x12, 0x14, 0x48, 0xa0, 0x10, 0x40, 0x20, 0x48, 0x29, 0x92, 0x82, 0x82, 0x50, 0x50, 0x45, 0x82, 0x48, 0x51, 0x80, 0xa8,
  0x00, 0x08, 0x80, 0x22, 0x11, 0x82, 0x24, 0x0a, 0x20, 0xa0, 0x00, 0x54, 0x00, 0x00, 0x80, 0x28, 0x88, 0x16, 0xa8, 0x25,
  0x40, 0xa1, 0x45, 0x28, 0x14, 0x00, 0x01, 0x28, 0x88, 0x4a, 0xa8, 0xaa, 0x10, 0x58, 0x85, 0x55, 0x00, 0x84, 0x48, 0x91,
  0x50, 0x01, 0x22, 0x80, 0x28, 0x00, 0x05, 0x0a, 0x15, 0x11, 0x54, 0x01, 0x00, 0x54, 0x00, 0x14, 0x10, 0x22, 0x81, 0x41,
  0x45, 0x15, 0x81, 0x00, 0x55, 0x11, 0x80, 0x00, 0x20, 0x5a, 0x21, 0x54, 0x00, 0x11, 0x56, 0x01, 0x24, 0xa2, 0xa2, 0x2a,
  0x01, 0x55, 0x44, 0x41, 0xa1, 0x54, 0x28, 0xa0, 0x06, 0x9a, 0x44, 0x15, 0xaa, 0x04, 0x28, 0x55, 0x80, 0x14, 0x45, 0x80,
  0x51, 0x02, 0x02, 0x80, 0x54, 0x00, 0x51, 0xa1, 0x18, 0x8a, 0x4a, 0x55, 0x40, 0x40, 0x85, 0x02, 0x00, 0xaa, 0x02, 0xa8,
  0x50, 0x11, 0x10, 0x40, 0x08, 0x80, 0x82, 0xaa, 0xa0, 0x01, 0x90, 0x48, 0xa0, 0x52, 0x28, 0x15, 0x80, 0x50, 0x20, 0x60,
  0xaa, 0x05, 0x41, 0xa1, 0x50, 0x01, 0x00, 0x02, 0x00, 0x60, 0x91, 0x18, 0x00, 0x0a, 0x50, 0x88, 0x00, 0x10, 0x12, 0x00,
  0x88, 0x24, 0x00, 0x28, 0x08, 0x25, 0x01, 0xa0, 0xa2, 0x48, 0xa1, 0x00, 0x10, 0x84, 0x40, 0x02, 0xa0, 0x80, 0x24, 0x0a,
  0x48, 0x05, 0x20, 0x81, 0x4a, 0xa8, 0x20, 0x00, 0x11, 0x84, 0xa8, 0x46, 0x18, 0x00, 0x20, 0x55, 0x28, 0x84, 0x00, 0x81,
  0x00, 0x28, 0x40, 0xa8, 0x40, 0x81, 0x02, 0x01, 0xa1, 0x00, 0x50, 0x2a, 0x01, 0xa0, 0x40, 0x28, 0x14, 0x22, 0x11, 0xa0,
  0x12, 0x10, 0x10, 0x12, 0xa1, 0x00, 0x15, 0x1a, 0x64, 0x05, 0x0a, 0x88, 0x80, 0x04, 0x16, 0xa8, 0x04, 0x10, 0x42, 0x55,
  0x4a, 0x28, 0x0a, 0x14, 0x2a, 0x01, 0x82, 0x42, 0x08, 0x15, 0x04, 0x01, 0x02, 0x11, 0x24, 0xa8, 0x41, 0x08, 0x48, 0x04,
  0x40, 0x08, 0x54, 0x05, 0x01, 0x00, 0x15, 0x05, 0x28, 0x15, 0x01, 0x02, 0x00, 0x55, 0x55, 0x84, 0x5a, 0x45, 0x55, 0x15,
  0x44, 0x01, 0x42, 0x41, 0x54, 0x44, 0xa0, 0x28, 0x11, 0x92, 0x40, 0x06, 0x15, 0x54, 0x15, 0x01, 0xaa, 0x4a, 0x01, 0x05,
  0x08, 0x54, 0x89, 0x2a, 0x0a, 0x01, 0x44, 0x00, 0x22, 0x14, 0x14, 0xa8, 0x42, 0x02, 0x10, 0x2a, 0x02, 0x28, 0x0a, 0x81,
  0xa0, 0x0a, 0x12, 0x48, 0x85, 0xaa, 0xaa, 0xa0, 0x0a, 0x01, 0x4a, 0x41, 0x80, 0x28, 0x2a, 0xaa, 0x50, 0x54, 0x01, 0x6a,
  0x49, 0x01, 0x00, 0x15, 0x42, 0xa0, 0x15, 0x00, 0x50, 0x94, 0x08, 0x2a, 0x04, 0x50, 0x00, 0x42, 0x80, 0x2a, 0x01, 0x80,
  0x42, 0x44, 0x09, 0x00, 0x55, 0xa8, 0x51, 0x24, 0xa0, 0x05, 0x94, 0x4a, 0x11, 0x00, 0x02, 0x0a, 0x10, 0x14, 0x50, 0x85,
  0x82, 0x42, 0x08, 0x85, 0x46, 0x21, 0x20, 0x0a, 0x11, 0x95, 0xaa, 0x11, 0x21, 0x04, 0x40, 0x95, 0xaa, 0x2a, 0x04, 0x68,
  0x04, 0x05, 0x44, 0x02, 0x2a, 0xa8, 0xa8, 0x56, 0x10, 0x60, 0x08, 0x10, 0xa2, 0x54, 0x58, 0xaa, 0xa2, 0x0a, 0x14, 0x8a,
  0x88, 0x50, 0x25, 0x50, 0x00, 0xa0, 0xaa, 0x08, 0x90, 0x1a, 0xa9, 0x44, 0x05, 0x41, 0x81, 0x02, 0xaa, 0x61, 0x55, 0x95,
  0x4a, 0x11, 0x44, 0x00, 0x00, 0x28, 0x54, 0x80, 0xaa, 0x40, 0x15, 0x82, 0x54, 0x19, 0x15, 0x00, 0x8a, 0x20, 0x0a, 0x15,
  0x28, 0x10, 0x11, 0x02, 0x54, 0x00, 0x60, 0x00, 0x04, 0x81, 0x00, 0x80, 0x20, 0x54, 0x11, 0x46, 0x10, 0x00, 0x0a, 0x82,
  0x40, 0x20, 0x00, 0x10, 0x02, 0x10, 0x14, 0x08, 0x12, 0xa1, 0x55, 0x55, 0x45, 0x01, 0x01, 0x80, 0x02, 0x40, 0x50, 0x40,
  0x15, 0xa0, 0x80, 0x82, 0x82, 0x00, 0x44, 0x54, 0x00, 0x88, 0x80, 0xaa, 0x20, 0xa2, 0x0a, 0x00, 0x14, 0x00, 0xa0, 0x00,
  0x00, 0x55, 0x55, 0x51, 0x50, 0x11, 0x02, 0x42, 0x54, 0x50, 0x01, 0x11, 0x10, 0x28, 0x00, 0x41, 0x24, 0x01, 0x11, 0x98,
  0x58, 0x04, 0x81, 0x04, 0xa8, 0x0a, 0x12, 0x45, 0x00, 0x11, 0x08, 0x04, 0x0a, 0x10, 0x01, 0x22, 0x40, 0x54, 0xa1, 0x85,
  0x48, 0x04, 0x82, 0x01, 0x80, 0xa0, 0x28, 0x44, 0x54, 0x01, 0x15, 0x4a, 0x45, 0x28, 0x00, 0x01, 0x00, 0x52, 0x00, 0xa8,
  0x05, 0x14, 0x28, 0x05, 0x14, 0x4a, 0x80, 0x15, 0x4a, 0x58, 0x45, 0x05, 0x2a, 0x82, 0x00, 0x01, 0x08, 0x11, 0x04, 0x08,
  0x0a, 0xa0, 0x4a, 0x55, 0x05, 0x04, 0x0a, 0x20, 0x02, 0x40, 0x0a, 0x90, 0x42, 0x00, 0x80, 0x20, 0x42, 0xa1, 0x05, 0x91,
  0x20, 0x28, 0x45, 0x41, 0x04, 0xa8, 0x22, 0x28, 0x81, 0x04, 0x04, 0x00, 0xa4, 0x82, 0x2a, 0x80, 0x10, 0x10, 0x61, 0x69,
  0x0a, 0x28, 0x04, 0x85, 0x00, 0x20, 0x54, 0xa0, 0x8a, 0x00, 0x15, 0x10, 0x02, 0x44, 0x08, 0x20, 0xaa, 0x80, 0x00, 0xa0,
  0x00, 0x05, 0x20, 0x20, 0x4a, 0x05, 0x80, 0x16, 0x40, 0x00, 0x08, 0xaa, 0x15, 0x08, 0x04, 0x00, 0x11, 0x00, 0x28, 0x54,
  0x00, 0x00, 0x04, 0x00, 0xa0, 0x42, 0x01, 0x22, 0x42, 0x45, 0x82, 0xa0, 0x20, 0x0a, 0xa0, 0x52, 0x01, 0x51, 0x05, 0x29,
  0xaa, 0x82, 0x22, 0x18, 0x51, 0x08, 0xa4, 0x50, 0x40, 0x00, 0x52, 0x44, 0x21, 0x28, 0x0a, 0x00, 0x00, 0x00, 0x80, 0x80,
  0xaa, 0x12, 0x10, 0x01, 0x60, 0x00, 0x40, 0x20, 0x00, 0xa8, 0x14, 0x0a, 0xa1, 0x2a, 0x0a, 0x50, 0x91, 0x14, 0x41, 0x42,
  0x82, 0x18, 0x00, 0x55, 0x00, 0x90, 0x08, 0x28, 0x04, 0x00, 0x14, 0x82, 0x54, 0x08, 0x95, 0x20, 0x42, 0x4a, 0x01, 0x20,
  0x08, 0x02, 0x14, 0x18, 0x05, 0x45, 0x40, 0x28, 0x04, 0x00, 0xa5, 0x10, 0x25, 0x50, 0xa1, 0x0a, 0x00, 0x02, 0x48, 0x05,
  0x00, 0x84, 0x22, 0x55, 0x11, 0x84, 0x00, 0x40, 0x12, 0xa9, 0x55, 0x04, 0xa0, 0x44, 0x02, 0x04, 0x42, 0x02, 0x10, 0x54,
  0x40, 0x00, 0x00, 0x01, 0x28, 0x24, 0x14, 0x8a, 0x84, 0x4a, 0x05, 0x2a, 0x52, 0x00, 0x45, 0x01, 0x02, 0x02, 0x88, 0x28,
  0x40, 0x55, 0x55, 0x81, 0x54, 0xa0, 0x12, 0x08, 0x40, 0x45, 0x85, 0x4a, 0x81, 0x42, 0x80, 0x5a, 0x45, 0x15, 0x00, 0x6a,
  0x0a, 0x04, 0x02, 0x54, 0x80, 0x80, 0x10, 0x20, 0x02, 0x40, 0x08, 0x10, 0x22, 0x22, 0x20, 0xa2, 0x54, 0x04, 0x00, 0xa0,
  0x10, 0x08, 0x50, 0x81, 0x8a, 0x02, 0x40, 0x54, 0x20, 0x95, 0x8a, 0x02, 0x00, 0x04, 0x00, 0x00, 0x08, 0x50, 0x88, 0x04,
  0x12, 0x80, 0xa0, 0x00, 0x08, 0x01, 0x08, 0x52, 0x40, 0x6a, 0x82, 0x40, 0x09, 0x04, 0x01, 0x11, 0x00, 0x90, 0x45, 0x80,
  0x45, 0x00, 0x41, 0xa1, 0x02, 0x00, 0x52, 0x05, 0x41, 0x41, 0x14, 0x54, 0x50, 0xa8, 0x08, 0x44, 0x15, 0x08, 0x50, 0x95,
  0x28, 0x02, 0x05, 0x08, 0xa0, 0x80, 0x50, 0x46, 0x20, 0x81, 0x2a, 0x08, 0x81, 0x54, 0x28, 0xaa, 0x02, 0x0a, 0xa0, 0x6a,
  0x49, 0x55, 0x85, 0x15, 0x2a, 0x55, 0x00, 0x08, 0x40, 0x08, 0x0a, 0x21, 0x10, 0x8a, 0x0a, 0x54, 0x00, 0x15, 0xa0, 0x52,
  0x81, 0x42, 0xa1, 0x00, 0x41, 0x20, 0x10, 0x04, 0x60, 0x51, 0x12, 0x04, 0x10, 0xa1, 0xaa, 0x82, 0x05, 0x01, 0x25, 0x18,
  0x04, 0x80, 0x88, 0x00, 0x50, 0x41, 0x11, 0x51, 0x15, 0x6a, 0x52, 0x81, 0x54, 0xa8, 0x00, 0x20, 0x08, 0xaa, 0x40, 0x04,
  0x81, 0x82, 0x81, 0x0a, 0xa8, 0x44, 0x04, 0x80, 0x45, 0xa0, 0x4a, 0x01, 0xa0, 0x0a, 0x08, 0x05, 0x4a, 0x05, 0x02, 0xa8,
  0x40, 0xa0, 0x00, 0x28, 0x08, 0x11, 0x20, 0x81, 0x05, 0xaa, 0x54, 0x0a, 0x04, 0x2a, 0x54, 0x80, 0x6a, 0x45, 0x14, 0xa8,
  0x02, 0x42, 0x05, 0x02, 0x85, 0x6a, 0x04, 0x02, 0x45, 0x01, 0x04, 0xa0, 0x2a, 0x2a, 0x62, 0x14, 0x05, 0x04, 0xa1, 0x28,
  0xaa, 0x94, 0x80, 0x12, 0x00, 0x44, 0x04, 0x84, 0x90, 0x20, 0x88, 0x80, 0xa8, 0x28, 0x41, 0x68, 0x50, 0x00, 0x05, 0x02,
  0x80, 0x10, 0x44, 0x55, 0x21, 0x00, 0x20, 0x14, 0x88, 0x95, 0x95, 0x42, 0x04, 0x2a, 0x80, 0x2a, 0x02, 0x14, 0x15, 0x01,
  0x28, 0x40, 0xa0, 0x2a, 0x52, 0x10, 0x80, 0x10, 0x28, 0x10, 0x00, 0x01, 0x02, 0x28, 0x15, 0x02, 0x54, 0x21, 0x1a, 0x0a,
  0x48, 0x80, 0xaa, 0x04, 0x01, 0x50, 0x81, 0x62, 0x24, 0x0a, 0x10, 0x40, 0x10, 0x00, 0xa8, 0x04, 0x82, 0x50, 0xa1, 0x96,
  0x20, 0x80, 0x08, 0x40, 0x01, 0x11, 0x55, 0x00, 0x00, 0x04, 0x2a, 0x41, 0xa0, 0x10, 0x20, 0x05, 0x40, 0xaa, 0x16, 0xa0,
  0x10, 0x28, 0x00, 0x40, 0x40, 0x01, 0xa8, 0x02, 0x14, 0x94, 0xa0, 0x10, 0x84, 0xa8, 0x48, 0x15, 0x11, 0x81, 0x56, 0x01,
  0xa0, 0x28, 0x44, 0x2a, 0x28, 0x50, 0xa5, 0x84, 0x80, 0x92, 0x15, 0xa8, 0xa2, 0x22, 0x21, 0xa2, 0x88, 0x00, 0x18, 0x58,
  0x40, 0x00, 0x81, 0x80, 0x84, 0x88, 0x42, 0x20, 0x00, 0x20, 0xaa, 0xa0, 0xa0, 0x08, 0x00, 0xa0, 0x02, 0x20, 0x42, 0x55,
  0x08, 0x04, 0x82, 0x0a, 0x80, 0x4a, 0xa8, 0x12, 0x50, 0x55, 0x81, 0x44, 0x01, 0x24, 0x02, 0xa0, 0x00, 0x20, 0x88, 0x80,
  0xa0, 0x42, 0x80, 0x06, 0x51, 0x81, 0x00, 0x04, 0x54, 0x08, 0x00, 0x80, 0x02, 0x08, 0x05, 0x50, 0x29, 0x00, 0x08, 0x50,
  0x81, 0x40, 0x40, 0xa8, 0x0a, 0x50, 0x88, 0xa6, 0x96, 0xa8, 0x40, 0x15, 0x51, 0x00, 0x85, 0x0a, 0x08, 0x0a, 0x00, 0x12,
  0x81, 0x42, 0x00, 0x00, 0x08, 0x40, 0x08, 0x84, 0x00, 0x69, 0x15, 0x42, 0x01, 0x4a, 0x01, 0x00, 0x00, 0x02, 0x14, 0x10,
  0x2a, 0x90, 0x00, 0x02, 0x8a, 0x2a, 0x54, 0x45, 0x55, 0x00, 0x02, 0xaa, 0x02, 0x05, 0x50, 0x55, 0x80, 0xa2, 0xa0, 0x02,
  0x05, 0x20, 0x55, 0xa1, 0x56, 0x21, 0x2a, 0x24, 0x05, 0x52, 0x00, 0x5a, 0x85, 0xaa, 0x40, 0xa9, 0x46, 0x01, 0x64, 0x54,
  0x28, 0x00, 0x44, 0x20, 0x15, 0x10, 0x01, 0x01, 0x05, 0x42, 0xa8, 0x02, 0x95, 0x04, 0x42, 0x2a, 0x54, 0x80, 0x00, 0x55,
  0x00, 0x80, 0x00, 0x50, 0x05, 0x00, 0x15, 0x09, 0xa0, 0x84, 0x0a, 0x20, 0x55, 0x05, 0x55, 0x41, 0xa0, 0x0a, 0x01, 0x08,
  0x00, 0x5a, 0xa1, 0x02, 0x55, 0x15, 0xa0, 0x42, 0xa1, 0x82, 0x28, 0x06, 0x26, 0x51, 0x45, 0x01, 0x20, 0x00, 0x0a, 0x2a,
  0x02, 0x05, 0x01, 0x10, 0x01, 0x08, 0x00, 0x12, 0x01, 0x02, 0x80, 0x20, 0x04, 0x01, 0x01, 0x00, 0xaa, 0x50, 0x08, 0x05,
  0x90, 0x40, 0x05, 0x40, 0x44, 0xa4, 0xa8, 0x02, 0x00, 0x00, 0x29, 0x54, 0x2a, 0x08, 0x15, 0x14, 0x81, 0xa2, 0x90, 0x92,
  0x02, 0x54, 0x54, 0x01, 0xa0, 0x80, 0x80, 0xaa, 0x4a, 0x21, 0x40, 0x29, 0x15, 0x05, 0x80, 0x48, 0x14, 0xa1, 0x42, 0x14,
  0xa1, 0x56, 0x10, 0x52, 0x05, 0xa0, 0xaa, 0x00, 0x8a, 0x00, 0x28, 0x14, 0x52, 0x05, 0x88, 0xa2, 0x20, 0x10, 0x81, 0x88,
  0x41, 0xa5, 0x10, 0x2a, 0xa0, 0x20, 0x54, 0x21, 0x90, 0xaa, 0x86, 0xa1, 0x2a, 0x4a, 0xa5, 0x46, 0x00, 0x04, 0x40, 0x08,
  0x50, 0xa8, 0x8a, 0x20, 0x12, 0x02, 0x48, 0x14, 0x41, 0x04, 0x80, 0xaa, 0x02, 0xa2, 0x0a, 0x55, 0x00, 0x58, 0x2a, 0x01,
  0x22, 0xaa, 0x12, 0x22, 0x0a, 0x51, 0x01, 0x05, 0xaa, 0xa0, 0x0a, 0x2a, 0x14, 0x00, 0x6a, 0xa8, 0x50, 0x00, 0x20, 0x61,
  0xa1, 0xaa, 0x42, 0xa5, 0x50, 0x85, 0x08, 0x40, 0xa9, 0x02, 0x44, 0x54, 0x40, 0x98, 0x44, 0x80, 0x80, 0x6a, 0x01, 0x14,
  0x15, 0x02, 0x01, 0x90, 0x50, 0x05, 0x21, 0x0a, 0x00, 0xa0, 0x10, 0x20, 0x22, 0x06, 0x2a, 0x0a, 0x14, 0x42, 0x50, 0xaa,
  0x50, 0xa8, 0x22, 0x08, 0xa8, 0x52, 0xaa, 0x20, 0x00, 0x90, 0x0a, 0x11, 0x12, 0x20, 0xaa, 0x48, 0x55, 0x05, 0x01, 0xa0,
  0x40, 0x22, 0x12, 0x88, 0xa8, 0x54, 0x11, 0x40, 0xaa, 0x14, 0x05, 0x14, 0x20, 0x00, 0x28, 0x80, 0x56, 0x00, 0x50, 0xa0,
  0x02, 0xaa, 0x08, 0x09, 0x50, 0x11, 0x01, 0x00, 0x8a, 0x2a, 0xa0, 0x80, 0x02, 0x08, 0x26, 0x55, 0x45, 0x04, 0x80, 0xaa,
  0x01, 0x10, 0x02, 0x00, 0x48, 0x84, 0x4a, 0x01, 0x6a, 0x95, 0x00, 0x20, 0x42, 0x04, 0x54, 0x88, 0x04, 0x84, 0x91, 0x2a,
  0x40, 0x01, 0x05, 0x04, 0x11, 0x49, 0xa0, 0x0a, 0x01, 0x00, 0x01, 0x5a, 0x04, 0x28, 0x04, 0x08, 0x50, 0x20, 0x10, 0x10,
  0x08, 0x00, 0x0a, 0x48, 0x00, 0x10, 0x00, 0x01, 0x28, 0x92, 0x05, 0x20, 0x00, 0x01, 0x10, 0x00, 0x8a, 0x01, 0x00, 0x51,
  0x21, 0xaa, 0x04, 0x05, 0x44, 0xaa, 0x42, 0x24, 0x8a, 0x41, 0x20, 0x40, 0x40, 0x15, 0x20, 0x00, 0xa0, 0x46, 0x00, 0x94,
  0x02, 0x88, 0x40, 0x01, 0x54, 0xa1, 0x54, 0x05, 0x04, 0x0a, 0x01, 0x20, 0x85, 0xa2, 0x84, 0x42, 0x48, 0x8a, 0x02, 0x69,
  0x16, 0x40, 0x00, 0x00, 0x04, 0x0a, 0xaa, 0x8a, 0x82, 0x02, 0x68, 0x14, 0x58, 0x51, 0xa9, 0x22, 0xa8, 0x00, 0x11, 0x54,
  0x80, 0xaa, 0x42, 0x80, 0x60, 0xa8, 0x12, 0x08, 0x02, 0x14, 0x22, 0x29, 0x40, 0x05, 0x84, 0x22, 0x85, 0x40, 0x85, 0x5a,
  0x90, 0x02, 0x88, 0x11, 0x40, 0x04, 0x51, 0xa5, 0x56, 0x60, 0x22, 0x00, 0x02, 0x00, 0x12, 0x2a, 0xa0, 0x40, 0x15, 0x88,
  0x22, 0x80, 0x0a, 0x82, 0x42, 0x00, 0x01, 0x86, 0x04, 0x12, 0xa0, 0x10, 0xa8, 0x08, 0x80, 0x22, 0x44, 0xa5, 0x90, 0x0a,
  0x08, 0x50, 0x68, 0x85, 0x80, 0x42, 0x15, 0x88, 0x45, 0xa8, 0x42, 0x08, 0x48, 0x01, 0x24, 0x10, 0x80, 0xa2, 0x04, 0x50,
  0x02, 0x10, 0x54, 0x05, 0x08, 0x80, 0x00, 0x81, 0x8a, 0x02, 0x22, 0x50, 0x05, 0x0a, 0x80, 0x02, 0x10, 0xa9, 0x84, 0x54,
  0x05, 0x82, 0x01, 0x14, 0x00, 0x42, 0xa0, 0x00, 0xa8, 0x86, 0x00, 0x00, 0x49, 0x55, 0x60, 0x15, 0x22, 0x10, 0x0a, 0xa0,
  0x4a, 0x41, 0x44, 0x85, 0x56, 0x00, 0x14, 0x15, 0x54, 0x69, 0x14, 0x40, 0x2a, 0x21, 0x00, 0x14, 0x00, 0x14, 0x20, 0x05,
  0x10, 0x01, 0x08, 0x80, 0x14, 0xa0, 0x12, 0x00, 0x05, 0x00, 0x00, 0x44, 0x28, 0x65, 0x51, 0x90, 0x00, 0x08, 0x49, 0x60,
  0x10, 0x44, 0x21, 0x00, 0x00, 0x82, 0x40, 0x04, 0x14, 0x11, 0x00, 0x01, 0x22, 0x28, 0x01, 0x04, 0x04, 0x88, 0x80, 0x96,
  0x02, 0x05, 0xa8, 0x40, 0x40, 0x68, 0x44, 0x04, 0x2a, 0x04, 0x95, 0x02, 0x42, 0x00, 0x2a, 0x00, 0x40, 0x00, 0x02, 0x2a,
  0x44, 0x05, 0x88, 0x00, 0xa2, 0x14, 0x50, 0xa0, 0x42, 0x01, 0x2a, 0x10, 0x51, 0xa8, 0x14, 0xa0, 0x12, 0x00, 0x20, 0x80,
  0x54, 0x25, 0x84, 0x42, 0x68, 0xa1, 0x0a, 0x54, 0x09, 0xa1, 0x45, 0x85, 0x80, 0x40, 0x02, 0x51, 0x58, 0x45, 0x04, 0xa0,
  0x52, 0x05, 0x80, 0x02, 0x50, 0x05, 0xa0, 0x58, 0xaa, 0x00, 0x81, 0x08, 0x20, 0x28, 0x05, 0x00, 0x42, 0x85, 0x1a, 0xa0,
  0x14, 0x00, 0x88, 0x6a, 0x00, 0x00, 0xa0, 0x11, 0x50, 0x08, 0xa9, 0x00, 0x22, 0x55, 0x80, 0x02, 0x51, 0xa5, 0x8a, 0x8a,
  0x41, 0x95, 0x48, 0x00, 0x80, 0x12, 0x28, 0x81, 0x90, 0x6a, 0x81, 0x40, 0x08, 0x44, 0x04, 0x20, 0x28, 0x41, 0x40, 0x11,
  0x8a, 0x04, 0x02, 0x02, 0x51, 0x55, 0x10, 0x80, 0x02, 0x00, 0x28, 0x01, 0x50, 0x01, 0x00, 0x16, 0x20, 0x15, 0x00, 0x6a,
  0x01, 0x85, 0x14, 0x08, 0x28, 0x25, 0x40, 0x15, 0xa0, 0x52, 0x05, 0x04, 0x00, 0x20, 0x08, 0x82, 0x50, 0x21, 0x54, 0x40,
  0x18, 0x28, 0x0a, 0x00, 0x09, 0x00, 0x4a, 0x41, 0x60, 0x05, 0x08, 0x54, 0x05, 0x00, 0x20, 0x68, 0x41, 0x08, 0x50, 0xa1,
  0x08, 0xa8, 0x00, 0x10, 0x21, 0x02, 0x20, 0x16, 0x14, 0x82, 0x22, 0x00, 0x20, 0x15, 0x12, 0xa2, 0x08, 0x04, 0x54, 0x49,
  0x80, 0x02, 0x42, 0x00, 0x85, 0x10, 0x40, 0x80, 0x02, 0xa0, 0x80, 0xaa, 0x10, 0x01, 0x04, 0x14, 0x0a, 0x22, 0x49, 0x51,
  0x85, 0x82, 0x48, 0x50, 0x29, 0x04, 0x82, 0x16, 0x22, 0x05, 0xaa, 0xa2, 0x12, 0x40, 0x14, 0xa0, 0x94, 0x20, 0x00, 0x4a,
  0x2a, 0x20, 0xa0, 0x42, 0x41, 0x01, 0x80, 0x14, 0xaa, 0x52, 0x15, 0x05, 0xa1, 0x40, 0x08, 0x80, 0x6a, 0x55, 0x00, 0xa0,
  0x14, 0x54, 0x2a, 0x85, 0x08, 0x00, 0x00, 0x15, 0x42, 0x08, 0x84, 0x02, 0x05, 0x00, 0x00, 0x02, 0x8a, 0x10, 0x40, 0x11,
  0x80, 0x10, 0x8a, 0x42, 0x81, 0x08, 0x49, 0x21, 0x51, 0x21, 0x2a, 0x84, 0x12, 0x62, 0x04, 0x94, 0x28, 0xa0, 0x1a, 0x84,
  0x8a, 0x00, 0x05, 0x05, 0x40, 0xa0, 0x02, 0x80, 0x44, 0x80, 0x55, 0x20, 0x04, 0x40, 0x55, 0x0a, 0x00, 0x14, 0x88, 0x15,
  0x80, 0xa8, 0x6a, 0x04, 0x54, 0x01, 0x00, 0x20, 0x89, 0x2a, 0x95, 0x6a, 0x28, 0x50, 0x05, 0x05, 0x00, 0x00, 0x00, 0x00,
  0x28, 0x11, 0x42, 0x51, 0x80, 0x0a, 0x08, 0x20, 0x58, 0x91, 0x08, 0x08, 0x28, 0x00, 0x01, 0x51, 0x50, 0x02, 0xa0, 0x04,
  0x00, 0x01, 0x28, 0x28, 0x0a, 0x54, 0x10, 0x40, 0x20, 0x42, 0x21, 0x42, 0x40, 0x04, 0xaa, 0xaa, 0xaa, 0x92, 0x2a, 0x14,
  0x54, 0x10, 0x95, 0x14, 0x89, 0x24, 0xaa, 0xaa, 0x52, 0x41, 0x85, 0x28, 0x12, 0x01, 0x04, 0x54, 0x20, 0x82, 0x12, 0x91,
  0x85, 0x54, 0x51, 0xa5, 0x00, 0x02, 0x2a, 0x01, 0x40, 0x42, 0x06, 0x00, 0x00, 0x40, 0x90, 0x40, 0x08, 0x54, 0x10, 0xa0,
  0x01, 0x06, 0x08, 0x48, 0x01, 0x40, 0x20, 0xa8, 0x10, 0x51, 0x05, 0x14, 0x12, 0x10, 0x20, 0x22, 0x00, 0x81, 0x06, 0x22,
  0x20, 0xa1, 0x40, 0x48, 0x81, 0x14, 0x02, 0x85, 0x02, 0x94, 0x01, 0x12, 0x90, 0x06, 0xa2, 0x02, 0x28, 0x50, 0x29, 0x00,
  0x81, 0x02, 0x10, 0x85, 0xaa, 0x20, 0x05, 0xa0, 0x62, 0x08, 0x05, 0x21, 0x50, 0x00, 0x0a, 0xa2, 0x82, 0x5a, 0x05, 0xa1,
  0x80, 0x52, 0x04, 0x00, 0x54, 0xa8, 0x42, 0x20, 0x82, 0x00, 0x2a, 0x81, 0x02, 0x40, 0xa1, 0x96, 0x6a, 0xa5, 0x12, 0x94,
  0x45, 0x40, 0x54, 0x02, 0x41, 0xa1, 0x04, 0x01, 0x08, 0x12, 0x44, 0x80, 0xa0, 0x00, 0x55, 0x55, 0xa8, 0x06, 0x44, 0x60,
  0x00, 0x00, 0x55, 0x55, 0x00, 0x50, 0x81, 0x80, 0x80, 0x10, 0x22, 0x22, 0x40, 0x55, 0xa0, 0x51, 0x01, 0x08, 0x90, 0x0a,
  0x54, 0x20, 0x40, 0x00, 0x54, 0x15, 0xa1, 0x6a, 0x09, 0x90, 0x0a, 0x60, 0xa8, 0xa2, 0x10, 0x44, 0x08, 0xa9, 0x4a, 0x00,
  0x50, 0x15, 0x08, 0x08, 0x02, 0x20, 0x00, 0x04, 0x54, 0x88, 0x2a, 0x10, 0xa8, 0x00, 0xa2, 0x04, 0x80, 0xa2, 0x02, 0x06,
  0x50, 0x21, 0x90, 0xaa, 0x54, 0x25, 0x41, 0x01, 0x01, 0x44, 0x98, 0x2a, 0xa8, 0x82, 0x02, 0x8a, 0x00, 0x04, 0x05, 0x68,
  0x51, 0x42, 0xa8, 0x52, 0x82, 0x40, 0x04, 0x00, 0x10, 0xa8, 0x02, 0x08, 0x40, 0x51, 0x41, 0x55, 0x04, 0x80, 0x02, 0x80,
  0x02, 0x09, 0x55, 0x00, 0x00, 0x04, 0x04, 0x41, 0x21, 0x82, 0x10, 0xa0, 0x42, 0x80, 0x04, 0x55, 0x46, 0x01, 0x00, 0x28,
  0x55, 0xa0, 0x14, 0x08, 0x05, 0x24, 0x44, 0x04, 0xa0, 0x6a, 0x15, 0x28, 0x04, 0x58, 0x00, 0x05, 0x02, 0xa1, 0x8a, 0x14,
  0x14, 0x54, 0x01, 0x28, 0x02, 0x0a, 0x02, 0x0a, 0x11, 0x04, 0x80, 0x40, 0xa1, 0x28, 0x20, 0x10, 0x88, 0x08, 0x08, 0x40,
  0x56, 0x25, 0x0a, 0xa8, 0x2a, 0x40, 0x00, 0x6a, 0x84, 0x52, 0x48, 0x84, 0x8a, 0xa8, 0x24, 0x15, 0x2a, 0x11, 0x24, 0x54,
  0x01, 0xa2, 0x00, 0xa0, 0x16, 0x51, 0x01, 0x00, 0x14, 0x02, 0x44, 0x25, 0x86, 0x02, 0x28, 0xa0, 0x52, 0x00, 0x05, 0x14,
  0xaa, 0x4a, 0xa1, 0x50, 0x01, 0x55, 0x02, 0x84, 0x42, 0x84, 0x48, 0x20, 0xaa, 0x11, 0x22, 0x10, 0x42, 0x00, 0x02, 0x24,
  0x80, 0x52, 0x28, 0x52, 0xa1, 0x8a, 0x44, 0xa8, 0x40, 0x85, 0x82, 0x10, 0xaa, 0x04, 0x00, 0x50, 0x2a, 0x85, 0x4a, 0x10,
  0x0a, 0x95, 0x02, 0x1a, 0xa2, 0x02, 0x01, 0x2a, 0x51, 0x6a, 0x51, 0x55, 0x05, 0xaa, 0x12, 0x05, 0x40, 0x20, 0xa0, 0x00,
  0x52, 0x00, 0x05, 0x84, 0x40, 0x16, 0x04, 0x6a, 0x04, 0x0a, 0x10, 0x44, 0x51, 0x81, 0x2a, 0x55, 0x25, 0x02, 0x01, 0x6a,
  0xa8, 0x04, 0x40, 0x11, 0xa0, 0x02, 0x01, 0x02, 0x05, 0x98, 0x01, 0x20, 0x54, 0x01, 0x01, 0x01, 0x00, 0x89, 0x2a, 0x45,
  0x10, 0x60, 0x04, 0x01, 0x02, 0x08, 0x16, 0x84, 0xa8, 0x90, 0x42, 0x20, 0x05, 0x10, 0xaa, 0x40, 0x28, 0x41, 0x28, 0xa0,
  0x11, 0x11, 0x15, 0x81, 0x8a, 0xa2, 0x08, 0x82, 0x44, 0x68, 0x01, 0xa0, 0xa8, 0x06, 0x12, 0x51, 0x15, 0x50, 0xa0, 0x02,
  0x16, 0x01, 0x84, 0x80, 0x08, 0x4a, 0x15, 0x42, 0x04, 0x28, 0x48, 0xa0, 0x81, 0x22, 0x08, 0x52, 0x00, 0x08, 0x81, 0x12,
  0xa0, 0x02, 0x88, 0x02, 0x12, 0x14, 0x0a, 0x02, 0x42, 0x50, 0x05, 0x21, 0x00, 0xa8, 0x52, 0x54, 0x45, 0x04, 0xaa, 0x6a,
  0x01, 0x2a, 0x40, 0x01, 0x45, 0x00, 0x15, 0x04, 0x00, 0x8a, 0x55, 0x48, 0x00, 0x80, 0x00, 0xa2, 0x10, 0x41, 0x21, 0x80,
  0x44, 0x84, 0x00, 0x00, 0x80, 0x04, 0x00, 0x15, 0x00, 0x40, 0x00, 0x00, 0x10, 0x20, 0x01, 0x10, 0x01, 0xa8, 0x94, 0x00,
  0x10, 0xa0, 0x55, 0x01, 0xa4, 0x00, 0x8a, 0x00, 0x98, 0x95, 0x48, 0x01, 0x00, 0x12, 0x01, 0x54, 0x22, 0xa0, 0x0a, 0x82,
  0x22, 0x00, 0x28, 0x55, 0x14, 0x40, 0x80, 0xaa, 0x02, 0x24, 0x40, 0x05, 0x02, 0x15, 0x28, 0x14, 0x0a, 0x52, 0x81, 0xa0,
  0x91, 0x42, 0x10, 0x00, 0x55, 0x95, 0x00, 0x00, 0x92, 0xa1, 0x22, 0x55, 0x2a, 0x41, 0x55, 0x40, 0xa0, 0xa8, 0x88, 0x90,
  0x41, 0x08, 0x00, 0xa0, 0x0a, 0x14, 0x40, 0x48, 0x85, 0x50, 0xa0, 0x28, 0x4a, 0x44, 0x50, 0x01, 0x01, 0x48, 0x80, 0x02,
  0x00, 0x02, 0x04, 0x01, 0x41, 0x20, 0x00, 0x00, 0x08, 0x50, 0x61, 0x54, 0xa0, 0x40, 0xa2, 0x10, 0x00, 0x85, 0x08, 0x04,
  0x00, 0x01, 0x00, 0xa8, 0x20, 0x2a, 0x44, 0x54, 0x25, 0x5a, 0xaa, 0x00, 0x68, 0x04, 0x40, 0xa1, 0x54, 0x81, 0xa2, 0xaa,
  0x28, 0x2a, 0x02, 0x8a, 0x00, 0x08, 0x40, 0x50, 0xa1, 0x40, 0xa8, 0x08, 0x22, 0x02, 0x50, 0x00, 0x00, 0x88, 0x08, 0x0a,
  0x00, 0x11, 0xa0, 0x5a, 0xa0, 0x00, 0x11, 0x08, 0x00, 0x42, 0x00, 0x15, 0x02, 0x80, 0x54, 0x05, 0x01, 0x42, 0x08, 0x80,
  0xaa, 0x84, 0x0a, 0xa0, 0x95, 0x00, 0x55, 0x05, 0x80, 0x01, 0xa0, 0x06, 0x28, 0x01, 0xaa, 0x28, 0x54, 0x50, 0x10, 0x80,
  0x10, 0x81, 0x10, 0x00, 0x50, 0x21, 0x22, 0x11, 0x64, 0x02, 0x00, 0x00, 0x44, 0x01, 0x22, 0x84, 0x14, 0x02, 0x81, 0x56,
  0x44, 0x20, 0x20, 0xa2, 0x0a, 0x00, 0x11, 0x88, 0x40, 0x61, 0x05, 0x01, 0x55, 0x08, 0xa0, 0x14, 0x60, 0x44, 0x00, 0x02,
  0xa2, 0x10, 0x00, 0x11, 0x64, 0x05, 0x94, 0x02, 0x85, 0x00, 0x2a, 0x14, 0x55, 0x54, 0x11, 0x00, 0x0a, 0x05, 0x54, 0x55,
  0x11, 0x20, 0x02, 0x00, 0x08, 0x00, 0x80, 0x08, 0x55, 0x05, 0x20, 0x00, 0x50, 0x01, 0x1a, 0x14, 0x00, 0x02, 0xa2, 0x94,
  0x01, 0x01, 0x20, 0x00, 0x52, 0x00, 0x50, 0x0a, 0x08, 0x42, 0x00, 0x00, 0x8a, 0x52, 0x80, 0x08, 0x52, 0x81, 0x02, 0x00,
  0xaa, 0x5a, 0x05, 0xaa, 0x10, 0x88, 0x88, 0x10, 0xa2, 0x0a, 0x14, 0x02, 0x14, 0x8a, 0x22, 0x05, 0x48, 0xa8, 0x00, 0x2a,
  0xa0, 0x02, 0x45, 0x05, 0x08, 0x22, 0x80, 0x20, 0x62, 0x60, 0xa4, 0x56, 0x50, 0x05, 0xa0, 0x50, 0xa1, 0x10, 0x00, 0x40,
  0x00, 0xa8, 0x10, 0x01, 0x08, 0x11, 0x04, 0x01, 0x88, 0x44, 0x04, 0xa2, 0x41, 0x28, 0x42, 0x08, 0x42, 0x01, 0x15, 0xa8,
  0xa8, 0x00, 0x00, 0x10, 0x00, 0x04, 0xa1, 0x01, 0x2a, 0x0a, 0x40, 0x54, 0x85, 0x82, 0x2a, 0x2a, 0x94, 0x12, 0x40, 0x60,
  0x10, 0x01, 0x25, 0x40, 0x84, 0x20, 0x01, 0x28, 0x40, 0x01, 0x10, 0x02, 0x02, 0x40, 0x01, 0x40, 0x15, 0xa2, 0x88, 0x02,
  0x50, 0x20, 0x20, 0xa1, 0x40, 0x15, 0x00, 0x08, 0x10, 0x11, 0x8a, 0x02, 0x10, 0x01, 0x40, 0x01, 0xa9, 0x88, 0x00, 0x48,
  0x12, 0x54, 0x25, 0xa0, 0x2a, 0xa0, 0x0a, 0x10, 0x24, 0x54, 0x15, 0x0a, 0x50, 0x01, 0x2a, 0x15, 0x80, 0x02, 0x81, 0x40,
  0x14, 0x40, 0x00, 0x80, 0x11, 0xa1, 0x04, 0x4a, 0x00, 0x04, 0x00, 0x80, 0x04, 0x15, 0x12, 0x21, 0x00, 0x08, 0x28, 0x04,
  0xa0, 0x42, 0x21, 0x11, 0x41, 0xa8, 0xa0, 0x00, 0xa8, 0x44, 0x54, 0x09, 0x00, 0x14, 0x28, 0x82, 0x24, 0x22, 0x95, 0xa0,
  0x56, 0x50, 0xa1, 0x12, 0x02, 0x2a, 0xa8, 0x80, 0x40, 0x95, 0xa2, 0x2a, 0x02, 0x05, 0x40, 0x12, 0xa1, 0x22, 0x82, 0x00,
  0x0a, 0x00, 0x88, 0x40, 0x28, 0x00, 0x00, 0x2a, 0x44, 0x15, 0xaa, 0x00, 0x00, 0x4a, 0x00, 0x02, 0x10, 0x05, 0x81, 0x5a,
  0x88, 0xa2, 0x40, 0x14, 0x81, 0x04, 0x50, 0xa0, 0x28, 0x51, 0x01, 0x55, 0x04, 0x10, 0x81, 0x50, 0x85, 0x00, 0x80, 0x82,
  0x2a, 0x00, 0x00, 0x00, 0x11, 0x80, 0x0a, 0x84, 0x00, 0x55, 0x84, 0x02, 0x80, 0x1a, 0x40, 0xa8, 0x0a, 0x80, 0x00, 0x00,
  0x51, 0xa0, 0x02, 0x84, 0x40, 0xa5, 0x88, 0xa8, 0x08, 0x41, 0x40, 0x04, 0x00, 0x10, 0x41, 0x00, 0x01, 0x02, 0x42, 0x40,
  0x40, 0x00, 0x02, 0x00, 0x05, 0x42, 0x81, 0x5a, 0x80, 0x8a, 0x00, 0x40, 0x01, 0x00, 0x60, 0x05, 0x0a, 0x00, 0x88, 0x01,
  0x00, 0x50, 0x01, 0x42, 0x00, 0x81, 0x00, 0x11, 0x40, 0x00, 0x58, 0x80, 0x12, 0x08, 0x50, 0x01, 0x04, 0x22, 0x04, 0x59,
  0xa9, 0x40, 0x21, 0x40, 0x54, 0x50, 0x81, 0x91, 0x8a, 0x90, 0x42, 0x51, 0xa9, 0x22, 0x40, 0x21, 0x44, 0x28, 0x21, 0x40,
  0x04, 0x58, 0x89, 0x82, 0x42, 0x40, 0x10, 0x81, 0x4a, 0x48, 0x01, 0x16, 0x55, 0x85, 0x48, 0x00, 0x20, 0x88, 0x42, 0x51,
  0xa1, 0x02, 0x54, 0x41, 0x60, 0x15, 0x64, 0x04, 0x09, 0x60, 0x01, 0x28, 0x14, 0x2a, 0x20, 0x05, 0x50, 0x11, 0xa4, 0x52,
  0x48, 0x40, 0x00, 0x02, 0x01, 0x00, 0x01, 0x00, 0x00, 0x42, 0xa8, 0x50, 0x0a, 0x18, 0xa0, 0x80, 0x08, 0x04, 0x00, 0x00,
  0x81, 0x4a, 0x01, 0x08, 0x50, 0x10, 0x02, 0x02, 0x00, 0x85, 0x1a, 0x04, 0x4a, 0x00, 0x02, 0x02, 0x11, 0x00, 0x04, 0x28,
  0x85, 0x5a, 0x00, 0x42, 0x11, 0x2a, 0x50, 0x80, 0x2a, 0x95, 0x5a, 0x54, 0x81, 0x88, 0x10, 0x54, 0x05, 0x88, 0x56, 0x88,
  0x4a, 0x00, 0x2a, 0x84, 0x56, 0x01, 0x40, 0x05, 0x80, 0x00, 0x40, 0x50, 0x00, 0x2a, 0x14, 0x08, 0x21, 0x06, 0x88, 0x44,
  0x08, 0x28, 0x29, 0x86, 0x60, 0x84, 0xaa, 0x4a, 0x41, 0x95, 0x52, 0xaa, 0x16, 0xaa, 0x0a, 0x20, 0x08, 0x42, 0x01, 0xa0,
  0x15, 0x0a, 0x55, 0x80, 0x2a, 0x50, 0x81, 0x52, 0x15, 0x00, 0x82, 0x02, 0xa0, 0x14, 0x06, 0x08, 0x04, 0x00, 0x81, 0x10,
  0x54, 0x60, 0x04, 0x80, 0x0a, 0x28, 0x05, 0x08, 0x81, 0x25, 0x41, 0x28, 0x80, 0x20, 0x04, 0x00, 0x21, 0x42, 0x94, 0x6a,
  0xa1, 0x56, 0x40, 0x2a, 0x81, 0x56, 0x08, 0x10, 0xa4, 0x52, 0x4a, 0x01, 0x81, 0xa0, 0xaa, 0x80, 0x08, 0x05, 0x01, 0x10,
  0x01, 0x2a, 0x68, 0xa0, 0x54, 0x84, 0x02, 0x60, 0x00, 0x40, 0x04, 0x20, 0x01, 0x00, 0x00, 0x89, 0x02, 0x92, 0x02, 0x21,
  0x1a, 0x14, 0x04, 0x00, 0x05, 0x04, 0x46, 0x00, 0x0a, 0x01, 0x82, 0x14, 0xa0, 0x4a, 0x01, 0x02, 0x15, 0x54, 0x04, 0x4a,
  0x15, 0x80, 0x2a, 0xa4, 0x14, 0x05, 0x84, 0x00, 0x84, 0x24, 0x10, 0x00, 0x0a, 0x14, 0x22, 0x40, 0x14, 0x51, 0x01, 0x0a,
  0x01, 0x51, 0x01, 0x21, 0x15, 0x00, 0x41, 0xa1, 0x28, 0x28, 0x42, 0x68, 0x09, 0x54, 0x05, 0x00, 0x00, 0x02, 0x44, 0x20,
  0x50, 0x01, 0x42, 0x80, 0x52, 0x50, 0x15, 0x20, 0x80, 0x9a, 0x09, 0x81, 0xaa, 0x0a, 0x81, 0x10, 0x85, 0x22, 0x04, 0x2a,
  0x40, 0x85, 0x0a, 0x2a, 0x00, 0x51, 0x55, 0x00, 0xa0, 0x28, 0x40, 0x40, 0xa9, 0x40, 0x51, 0x40, 0xa0, 0x04, 0x02, 0x24,
  0x80, 0x40, 0x20, 0xa8, 0x6a, 0xa8, 0x08, 0x00, 0xa2, 0x40, 0x05, 0x02, 0x20, 0xaa, 0x08, 0x44, 0x00, 0x40, 0xa2, 0x68,
  0x55, 0x50, 0x54, 0x00, 0x45, 0x15, 0x81, 0x2a, 0x14, 0x81, 0x2a, 0x20, 0x50, 0x4a, 0x15, 0x50, 0x01, 0x08, 0xa2, 0x00,
  0x90, 0x20, 0x00, 0x14, 0x00, 0x00, 0x80, 0x44, 0x82, 0x04, 0x41, 0xaa, 0x55, 0x00, 0x00, 0x40, 0x55, 0x08, 0x80, 0xa0,
  0x02, 0x80, 0x50, 0x05, 0x50, 0x50, 0x95, 0x0a, 0x15, 0x88, 0x02, 0x40, 0xa5, 0x14, 0x58, 0xa8, 0x01, 0xaa, 0x0a, 0xa5,
  0x44, 0x50, 0x20, 0x91, 0x00, 0x2a, 0x02, 0x06, 0x52, 0x10, 0x00, 0x02, 0xa0, 0x80, 0x02, 0x05, 0x08, 0x04, 0xaa, 0x05,
  0x40, 0x52, 0x40, 0xa0, 0x2a, 0x50, 0x40, 0x02, 0x28, 0x80, 0x14, 0x02, 0xa0, 0x40, 0x00, 0x00, 0x81, 0x00, 0x09, 0x85,
  0x00, 0x10, 0x2a, 0x20, 0x08, 0x82, 0x55, 0x88, 0xa2, 0x42, 0x05, 0x54, 0x04, 0x42, 0xa0, 0x2a, 0x00, 0x12, 0x55, 0x00,
  0xa1, 0x12, 0x00, 0x00, 0x01, 0x10, 0xa0, 0x10, 0x54, 0x25, 0x00, 0x00, 0x2a, 0x10, 0x6a, 0x15, 0x51, 0x55, 0x08, 0x81,
  0x00, 0x81, 0x00, 0xa1, 0x48, 0x05, 0x04, 0x50, 0x22, 0x52, 0x2a, 0xaa, 0x02, 0x04, 0xaa, 0x52, 0x00, 0x81, 0xa2, 0x56,
  0x95, 0x5a, 0x00, 0x04, 0x14, 0x82, 0x22, 0x20, 0x40, 0xa0, 0x0a, 0x0a, 0x40, 0x40, 0x10, 0x05, 0xa0, 0x00, 0x81, 0x00,
  0x10, 0x00, 0x80, 0x42, 0x45, 0x05, 0x40, 0x04, 0x40, 0xa9, 0x50, 0x85, 0x40, 0x15, 0x22, 0x05, 0x02, 0x48, 0xa8, 0x5a,
  0x56, 0xa1, 0x81, 0x56, 0x29, 0x05, 0x50, 0x04, 0x02, 0x00, 0x2a, 0x04, 0x54, 0x15, 0x01, 0x84, 0x00, 0x22, 0x44, 0x51,
  0x21, 0xa2, 0x00, 0x28, 0x10, 0x54, 0x15, 0x88, 0x04, 0x00, 0x10, 0xa0, 0x82, 0x68, 0x05, 0x40, 0x41, 0x00, 0xa8, 0x00,
  0x0a, 0xa8, 0x00, 0x54, 0x02, 0x21, 0x00, 0x04, 0xa8, 0x96, 0x6a, 0x01, 0xa0, 0x00, 0x22, 0x16, 0x14, 0x00, 0x80, 0x20,
  0x54, 0x15, 0x20, 0x44, 0x44, 0x80, 0x62, 0x01, 0x00, 0x22, 0x01, 0x01, 0x28, 0x80, 0x42, 0x85, 0x08, 0x40, 0x51, 0x04,
  0x00, 0x00, 0x40, 0x21, 0x20, 0x00, 0x04, 0xa0, 0x10, 0x48, 0x15, 0x0a, 0x05, 0x62, 0x29, 0x02, 0x00, 0x20, 0xa1, 0xa4,
  0x02, 0x00, 0x22, 0x28, 0x00, 0x05, 0x91, 0x50, 0x29, 0x42, 0x00, 0xa0, 0x04, 0xa0, 0x46, 0x00, 0x00, 0x14, 0x82, 0x04,
  0x00, 0x0a, 0x11, 0xa8, 0x10, 0xaa, 0x50, 0xa0, 0x42, 0x80, 0x0a, 0x01, 0x54, 0xa1, 0x55, 0x28, 0x80, 0x12, 0x2a, 0x00,
  0xa8, 0x50, 0x08, 0x2a, 0x86, 0x01, 0x05, 0xa8, 0x85, 0x62, 0x82, 0xa4, 0x00, 0x51, 0x15, 0x22, 0x10, 0x81, 0x00, 0x00,
  0x04, 0x20, 0x00, 0x04, 0x80, 0x14, 0xa0, 0x11, 0x40, 0x02, 0x05, 0x08, 0x10, 0x88, 0x48, 0x10, 0xa5, 0x02, 0x00, 0x00,
  0x40, 0x00, 0x10, 0x01, 0x00, 0x91, 0x0a, 0x04, 0x40, 0x45, 0x00, 0x00, 0x28, 0x20, 0x54, 0xa0, 0x80, 0x4a, 0x21, 0x56,
  0x0a, 0x15, 0x00, 0x10, 0x05, 0xa8, 0x54, 0x01, 0x54, 0xa8, 0x40, 0x10, 0xa8, 0x40, 0xa8, 0x14, 0x4a, 0x00, 0x00, 0x04,
  0x80, 0x88, 0x2a, 0x80, 0x00, 0x55, 0x08, 0x15, 0x80, 0x0a, 0x68, 0x0a, 0x62, 0x80, 0x41, 0x28, 0x80, 0xaa, 0x02, 0xa8,
  0x88, 0x01, 0x22, 0x02, 0xa0, 0x0a, 0x86, 0x82, 0x11, 0x95, 0x00, 0x50, 0x15, 0x28, 0x01, 0x00, 0x04, 0x48, 0x21, 0x22,
  0x01, 0x40, 0x24, 0x08, 0x21, 0xa1, 0x8a, 0x14, 0x12, 0x21, 0x80, 0x42, 0x08, 0x14, 0x28, 0x48, 0x40, 0x10, 0x22, 0x4a,
  0x54, 0x85, 0x0a, 0x85, 0x02, 0x80, 0xa8, 0x80, 0x86, 0x0a, 0x54, 0xa9, 0x80, 0x4a, 0x88, 0x45, 0x44, 0x61, 0x94, 0x96,
  0x81, 0x12, 0xa0, 0x8a, 0x2a, 0x44, 0x45, 0x00, 0x56, 0xa9, 0x2a, 0x25, 0x50, 0x01, 0x02, 0x40, 0x51, 0x00, 0xa0, 0x00,
  0x02, 0x04, 0x05, 0x00, 0x81, 0x54, 0x55, 0x01, 0xa8, 0x16, 0x05, 0x0a, 0x80, 0x42, 0x88, 0x02, 0x20, 0x52, 0x81, 0x14,
  0x51, 0x54, 0x04, 0x88, 0x22, 0x02, 0x10, 0x00, 0x22, 0x68, 0x56, 0x28, 0x00, 0xa1, 0x12, 0x60, 0xa8, 0x02, 0xa8, 0x22,
  0xa0, 0x58, 0x41, 0x00, 0x01, 0xa0, 0x58, 0x01, 0x44, 0x21, 0x08, 0x01, 0xaa, 0x00, 0xa0, 0x08, 0x00, 0x54, 0x80, 0x50,
  0x84, 0x0a, 0x01, 0x10, 0xaa, 0x40, 0x28, 0x15, 0xa9, 0x2a, 0x08, 0x0a, 0x55, 0x21, 0x00, 0x05, 0x50, 0x84, 0xa0, 0x6a,
  0xa8, 0x4a, 0x15, 0x14, 0xa8, 0x00, 0x40, 0xa0, 0x40, 0x08, 0x45, 0x80, 0x00, 0xa0, 0x50, 0x41, 0x80, 0x8a, 0x85, 0x10,
  0x00, 0xa8, 0x50, 0x08, 0x1a, 0x44, 0x40, 0x41, 0x00, 0x2a, 0x01, 0x08, 0x00, 0x52, 0x55, 0x80, 0x28, 0x04, 0x04, 0x10,
  0x01, 0x40, 0xa9, 0x02, 0x50, 0xa2, 0x15, 0x80, 0x88, 0xa4, 0x4a, 0xa8, 0x00, 0xaa, 0x55, 0x52, 0x11, 0x40, 0xa8, 0x0a,
  0xaa, 0x52, 0xa1, 0x42, 0x04, 0x01, 0x20, 0x80, 0x6a, 0x11, 0x42, 0x10, 0x68, 0x14, 0x45, 0x55, 0x01, 0x2a, 0x84, 0xaa,
  0x42, 0x00, 0x01, 0x21, 0x18, 0x01, 0xa0, 0x42, 0x20, 0x58, 0xa0, 0x22, 0x81, 0xaa, 0x15, 0x00, 0x01, 0xa8, 0x22, 0x50,
  0x21, 0x44, 0xa4, 0x28, 0x80, 0x50, 0x05, 0xa2, 0x10, 0x52, 0x44, 0x15, 0x2a, 0xa0, 0x00, 0xa1, 0x08, 0x08, 0x46, 0xa8,
  0x46, 0x29, 0x81, 0x0a, 0x10, 0x16, 0x55, 0x02, 0x88, 0x00, 0x15, 0x80, 0x2a, 0x0a, 0x00, 0x55, 0x15, 0x20, 0xaa, 0xaa,
  0x2a, 0x54, 0x55, 0x55, 0x01, 0x48, 0x91, 0x2a, 0x04, 0x6a, 0x85, 0x4a, 0x01, 0x40, 0x00, 0x4a, 0x95, 0x94, 0x0a, 0x28,
  0x42, 0x20, 0x51, 0x05, 0x08, 0x0a, 0x6a, 0x81, 0x50, 0x15, 0x50, 0x05, 0xa2, 0x08, 0x5a, 0x40, 0x21, 0x04, 0x14, 0x0a,
  0x00, 0x00, 0x84, 0x02, 0x15, 0x10, 0x05, 0x44, 0xa5, 0x50, 0x02, 0x40, 0x81, 0x12, 0x88, 0x20, 0x5a, 0x95, 0x00, 0x60,
  0x15, 0x55, 0x05, 0x05, 0x50, 0x85, 0x56, 0x40, 0x80, 0x22, 0x06, 0x10, 0x55, 0xaa, 0x02, 0x10, 0x0a, 0x55, 0x29, 0x42,
  0xaa, 0x18, 0x09, 0x22, 0x4a, 0x01, 0x08, 0x01, 0x0a, 0x54, 0x05, 0x25, 0x80, 0x40, 0x00, 0x40, 0x50, 0xa8, 0x02, 0x08,
  0x54, 0x81, 0x02, 0x00, 0xaa, 0x52, 0x40, 0x45, 0x10, 0xa8, 0x46, 0x20, 0x55, 0x15, 0x40, 0x09, 0x14, 0x06, 0xa9, 0x01,
  0x00, 0x00, 0x00, 0x02, 0x50, 0x00, 0x00, 0x2a, 0x15, 0x04, 0x86, 0x00, 0x80, 0xa0, 0x00, 0x81, 0x00, 0x08, 0x04, 0x10,
  0x81, 0x00, 0x10, 0x01, 0xa2, 0x0a, 0x40, 0xa8, 0xa1, 0x5a, 0x81, 0x80, 0x22, 0x52, 0xa1, 0x54, 0x59, 0x40, 0x44, 0x69,
  0x20, 0x09, 0xa5, 0x02, 0xa0, 0x08, 0x20, 0x84, 0x42, 0x80, 0xa8, 0x04, 0x28, 0x04, 0x00, 0x28, 0xa9, 0x0a, 0x00, 0x55,
  0x44, 0x25, 0x4a, 0x05, 0x2a, 0x42, 0x4a, 0x55, 0x00, 0x12, 0x54, 0x15, 0x02, 0x84, 0x22, 0x1a, 0xa8, 0x5a, 0x05, 0x00,
  0x15, 0xaa, 0x06, 0xaa, 0xaa, 0x00, 0x44, 0x00, 0xaa, 0xa9, 0x0a, 0xa5, 0x2a, 0x02, 0x01, 0x02, 0x00, 0x45, 0x50, 0x20,
  0x02, 0xa4, 0x28, 0x81, 0x02, 0x1a, 0x81, 0x01, 0x41, 0x08, 0x10, 0x28, 0x02, 0x02, 0x00, 0x00, 0x20, 0x14, 0xa8, 0x40,
  0x40, 0x54, 0x05, 0xa0, 0x50, 0xa8, 0x42, 0xa1, 0x00, 0x15, 0x48, 0x00, 0xa0, 0x10, 0x40, 0xa5, 0x52, 0x29, 0x41, 0xa1,
  0x50, 0x55, 0x08, 0x2a, 0x00, 0x40, 0xa1, 0x02, 0x80, 0x48, 0xa0, 0x11, 0x54, 0x00, 0x88, 0xa8, 0x22, 0x05, 0x15, 0x10,
  0x81, 0x02, 0x10, 0x84, 0xaa, 0x22, 0x04, 0x80, 0x00, 0x80, 0x0a, 0x15, 0x00, 0x01, 0x00, 0x80, 0x81, 0x4a, 0x04, 0x02,
  0x05, 0x0a, 0x05, 0x5a, 0x00, 0xa0, 0x42, 0x55, 0x20, 0x94, 0x25, 0x59, 0x00, 0x80, 0x50, 0x45, 0x05, 0x58, 0x80, 0x00,
  0x12, 0x25, 0x54, 0x01, 0x54, 0x04, 0x51, 0xa1, 0x22, 0x00, 0x00, 0x28, 0x02, 0x88, 0x10, 0x44, 0x11, 0x14, 0x20, 0x56,
  0x20, 0x51, 0x15, 0x02, 0x54, 0x55, 0x04, 0x00, 0x01, 0x51, 0x65, 0x45, 0xa0, 0x0a, 0x04, 0x42, 0x55, 0x10, 0x80, 0x88,
  0x42, 0xa9, 0x82, 0x20, 0xaa, 0x10, 0x00, 0x02, 0x04, 0x00, 0x44, 0x00, 0x00, 0xaa, 0x5a, 0x11, 0x48, 0x14, 0x02, 0x80,
  0xa2, 0x55, 0x14, 0x10, 0x04, 0x82, 0x4a, 0x00, 0x55, 0x40, 0x50, 0x05, 0x20, 0x2a, 0x14, 0x04, 0x02, 0x85, 0x8a, 0x50,
  0x91, 0x91, 0x88, 0x08, 0x54, 0x81, 0x08, 0xa9, 0xaa, 0xaa, 0xa8, 0xa0, 0xaa, 0x48, 0x01, 0x40, 0x08, 0x54, 0x80, 0xa0,
  0x2a, 0xa8, 0x68, 0x22, 0x50, 0x15, 0x05, 0x62, 0x04, 0x22, 0x10, 0xa2, 0x00, 0x50, 0x54, 0x04, 0x80, 0x0a, 0x84, 0x02,
  0x14, 0x00, 0x60, 0x08, 0x14, 0x29, 0x2a, 0x04, 0x80, 0x02, 0xaa, 0x54, 0x85, 0xaa, 0x00, 0x00, 0x8a, 0xa0, 0x12, 0xa5,
  0x42, 0x95, 0xa2, 0x50, 0x41, 0x95, 0x00, 0x58, 0x15, 0xa8, 0x10, 0xaa, 0x00, 0x28, 0x05, 0x00, 0x40, 0x55, 0xa8, 0xaa,
  0x52, 0x01, 0x82, 0x00, 0x02, 0x48, 0x50, 0xa9, 0x52, 0xa8, 0x50, 0x60, 0xa5, 0x50, 0x81, 0x42, 0x89, 0x44, 0x90, 0x11,
  0x44, 0x55, 0x11, 0x88, 0x02, 0x00, 0x42, 0x15, 0x22, 0x95, 0x12, 0x0a, 0x2a, 0x10, 0x42, 0xa1, 0x02, 0x04, 0x14, 0x00,
  0x01, 0xa2, 0x2a, 0x40, 0x48, 0x02, 0x02, 0x10, 0x20, 0x42, 0xa0, 0x8a, 0x02, 0x09, 0x00, 0x2a, 0x40, 0x60, 0x10, 0x2a,
  0xa8, 0x2a, 0x51, 0x58, 0xa1, 0x04, 0x82, 0x08, 0x52, 0xa1, 0x8a, 0x84, 0x2a, 0x15, 0x26, 0x08, 0x00, 0x4a, 0x58, 0xa1,
  0x0a, 0x50, 0x00, 0x68, 0x05, 0x52, 0x04, 0x80, 0x28, 0xa0, 0x02, 0x21, 0x54, 0x04, 0x00, 0x2a, 0x11, 0x22, 0x80, 0x22,
  0x45, 0x00, 0xa2, 0x02, 0x2a, 0x80, 0x40, 0x22, 0x2a, 0x55, 0x80, 0x54, 0x04, 0x82, 0x06, 0x68, 0x05, 0x51, 0x28, 0x6a,
  0xa1, 0x52, 0x05, 0x15, 0x0a, 0x10, 0x0a, 0x15, 0x44, 0x68, 0x94, 0x02, 0x20, 0x2a, 0x15, 0x54, 0xa0, 0x5a, 0x84, 0x2a,
  0x04, 0x2a, 0x00, 0x51, 0x85, 0x08, 0x00, 0x22, 0x52, 0x01, 0xa4, 0x88, 0x4a, 0x40, 0x81, 0x2a, 0x40, 0xa1, 0x4a, 0xa1,
  0x00, 0xa2, 0x82, 0x6a, 0x20, 0x00, 0x85, 0x10, 0x14, 0x2a, 0x00, 0x28, 0x55, 0x54, 0x88, 0x88, 0x20, 0x50, 0xa8, 0x92,
  0x50, 0xa9, 0x50, 0x40, 0x45, 0x02, 0x2a, 0x54, 0x01, 0x51, 0x51, 0x00, 0x60, 0x04, 0x54, 0x04, 0x88, 0x28, 0x48, 0x11,
  0x82, 0xa8, 0x42, 0x55, 0x50, 0x14, 0x82, 0x42, 0x44, 0x01, 0x04, 0x15, 0x05, 0x88, 0x02, 0x82, 0x41, 0x05, 0x00, 0x82,
  0xa2, 0x28, 0x81, 0x6a, 0x95, 0x2a, 0x56, 0x2a, 0x14, 0x6a, 0x04, 0x28, 0x14, 0x08, 0x45, 0x11, 0x80, 0x00, 0x02, 0x01,
  0x40, 0x40, 0x04, 0x24, 0x20, 0x04, 0x24, 0xa0, 0x22, 0x48, 0x14, 0x41, 0x14, 0x88, 0x2a, 0xa2, 0x54, 0x81, 0x0a, 0x04,
  0x80, 0x8a, 0x54, 0x88, 0x08, 0x00, 0x61, 0x05, 0x80, 0x4a, 0x40, 0x05, 0x50, 0x11, 0x00, 0x84, 0x2a, 0x20, 0x95, 0x96,
  0x29, 0x84, 0x01, 0x04, 0xaa, 0x10, 0x0a, 0x10, 0x01, 0x02, 0x85, 0xaa, 0x10, 0x28, 0x08, 0xaa, 0x28, 0x55, 0x81, 0x02,
  0x09, 0xa1, 0x04, 0x50, 0x40, 0x40, 0x2a, 0xa4, 0x50, 0x45, 0xa2, 0x12, 0x85, 0x4a, 0x81, 0x2a, 0x55, 0x60, 0x82, 0x08,
  0x20, 0x14, 0x8a, 0x1a, 0x2a, 0xa0, 0x04, 0x40, 0x88, 0xa4, 0x01, 0x80, 0xaa, 0x00, 0x50, 0x55, 0x40, 0xa0, 0x00, 0x20,
  0x50, 0x49, 0x00, 0x04, 0x40, 0x2a, 0x00, 0x00, 0x05, 0x10, 0x85, 0xaa, 0x42, 0x01, 0x10, 0x54, 0x45, 0xa0, 0xa2, 0x02,
  0x54, 0x40, 0x45, 0xa8, 0x00, 0x2a, 0xa8, 0x2a, 0x54, 0x52, 0x11, 0x10, 0x54, 0x28, 0x90, 0x02, 0xa0, 0xa8, 0xaa, 0x9a,
  0x56, 0x40, 0x40, 0xa0, 0x56, 0x8a, 0x08, 0x08, 0x08, 0x45, 0xa0, 0x02, 0x82, 0x12, 0x56, 0x28, 0xa0, 0xaa, 0x55, 0x25,
  0x10, 0x20, 0x28, 0x81, 0x0a, 0x14, 0x88, 0x20, 0x2a, 0x84, 0x44, 0x29, 0x20, 0xa4, 0x0a, 0x20, 0x48, 0x40, 0x10, 0x28,
  0x01, 0x00, 0x01, 0x00, 0x40, 0xa9, 0xa0, 0x00, 0x02, 0x50, 0x01, 0xaa, 0x00, 0x85, 0x5a, 0x85, 0x02, 0x0a, 0x54, 0x01,
  0x55, 0xa1, 0xa4, 0x80, 0x4a, 0x21, 0x05, 0x41, 0xa8, 0x00, 0x06, 0x08, 0x81, 0x10, 0x50, 0x41, 0x00, 0x29, 0x04, 0x0a,
  0x01, 0x00, 0x44, 0xa0, 0xaa, 0x08, 0x00, 0x01, 0x56, 0x41, 0xa5, 0x14, 0x69, 0xa8, 0x84, 0x5a, 0x11, 0xa9, 0x06, 0x56,
  0x48, 0x45, 0x2a, 0x15, 0x88, 0x50, 0x48, 0x01, 0x41, 0x08, 0x10, 0x15, 0x29, 0xa0, 0x0a, 0x04, 0x05, 0x01, 0x60, 0x08,
  0xa0, 0x54, 0x45, 0x51, 0x40, 0x00, 0x08, 0x10, 0x00, 0x51, 0x15, 0x00, 0x14, 0x05, 0x44, 0xa5, 0x0a, 0x8a, 0x54, 0x55,
  0x01, 0x2a, 0xa2, 0x28, 0x08, 0x55, 0x15, 0xa8, 0x0a, 0x82, 0x80, 0x12, 0x52, 0xa1, 0x02, 0x89, 0x02, 0x14, 0x08, 0x40,
  0x01, 0x02, 0x80, 0x00, 0x20, 0x28, 0x00, 0x00, 0x08, 0x00, 0x20, 0x01, 0x02, 0x00, 0x08, 0x00, 0x85, 0x04, 0x55, 0x28,
  0x00, 0x15, 0x08, 0x94, 0x0a, 0x20, 0x00, 0x01, 0x44, 0x08, 0x04, 0x6a, 0x41, 0x10, 0x52, 0x52, 0xa0, 0x14, 0x50, 0x61,
  0x5a, 0x15, 0xa8, 0x00, 0x80, 0x60, 0x21, 0x02, 0x08, 0x00, 0x02, 0x02, 0x52, 0x01, 0x00, 0x28, 0xa0, 0x00, 0x01, 0x00,
  0x02, 0x00, 0x02, 0x28, 0x04, 0x01, 0x6a, 0x00, 0x00, 0x00, 0x00, 0x00, 0x00, 0x28, 0x10, 0x80, 0x20, 0x81, 0x84, 0x02,
  0x00, 0x28, 0x90, 0x02, 0x24, 0x85, 0x02, 0x60, 0x24, 0x6a, 0x85, 0x42, 0x88, 0x80, 0xa8, 0x00, 0xa0, 0x22, 0x88, 0x04,
  0x02, 0x00, 0x02, 0x00, 0x02, 0xaa, 0xaa, 0x4a, 0x54, 0x22, 0x50, 0x40, 0x00, 0x20, 0x05, 0x08, 0x28, 0x54, 0x04, 0x40,
  0x10, 0x20, 0x11, 0x08, 0x80, 0xaa, 0x52, 0x24, 0x08, 0x05, 0x28, 0x04, 0x08, 0x54, 0xa1, 0x82, 0xaa, 0xaa, 0x8a, 0x90,
  0x05, 0x15, 0x80, 0x22, 0x00, 0xa0, 0x22, 0x20, 0x40, 0x40, 0x28, 0x52, 0x00, 0x0a, 0x08, 0xa8, 0x42, 0x41, 0x11, 0x50,
  0x04, 0x00, 0x0a, 0x60, 0x02, 0x10, 0x41, 0x11, 0x10, 0x68, 0x00, 0x40, 0x00, 0x00, 0x2a, 0x10, 0x45, 0xa8, 0x50, 0x21,
  0x1a, 0x42, 0xa2, 0x84, 0xa2, 0x2a, 0x05, 0x52, 0x54, 0x6a, 0x52, 0xa0, 0x42, 0x10, 0x2a, 0x55, 0x80, 0x2a, 0x21, 0x00,
  0x00, 0x00, 0x02, 0x28, 0x00, 0x50, 0x85, 0x80, 0x00, 0x22, 0xa0, 0x42, 0x01, 0x00, 0x10, 0x00, 0xa1, 0x06, 0x29, 0x84,
  0x02, 0x40, 0x21, 0x12, 0x15, 0x4a, 0x21, 0x52, 0xa8, 0x15, 0x08, 0x80, 0x02, 0x01, 0x24, 0x42, 0x21, 0x00, 0x51, 0xa0,
  0x40, 0x28, 0x50, 0xa5, 0x20, 0xa8, 0x08, 0x80, 0x2a, 0x80, 0xa2, 0x80, 0x42, 0x01, 0x04, 0x00, 0xa0, 0x08, 0x00, 0x01,
  0xa8, 0x50, 0x81, 0x8a, 0x14, 0x00, 0x25, 0x02, 0x14, 0x10, 0x11, 0x20, 0x41, 0x00, 0x10, 0x85, 0x40, 0x10, 0x80, 0x00,
  0x05, 0x04, 0x15, 0x50, 0xaa, 0x10, 0x55, 0x55, 0x05, 0x69, 0x52, 0x05, 0x01, 0x40, 0x20, 0x10, 0x02, 0x54, 0x2a, 0x54,
  0x81, 0x0a, 0x00, 0x82, 0x55, 0x49, 0x41, 0x01, 0xa8, 0x02, 0x00, 0x50, 0x14, 0x90, 0x00, 0x14, 0x28, 0x04, 0x4a, 0x08,
  0x54, 0xa0, 0x4a, 0x81, 0x04, 0x20, 0x05, 0x68, 0x28, 0x50, 0x81, 0x45, 0x45, 0x20, 0xa8, 0x42, 0x58, 0x81, 0x56, 0x40,
  0x12, 0x80, 0x0a, 0x16, 0x0a, 0x00, 0x2a, 0x04, 0x21, 0x04, 0x00, 0x2a, 0x0a, 0x48, 0x41, 0x48, 0x45, 0x20, 0x10, 0x04,
  0x88, 0x80, 0x2a, 0x02, 0x28, 0x40, 0x05, 0x44, 0x04, 0x14, 0x00, 0xa0, 0x50, 0x00, 0x04, 0x88, 0x80, 0x04, 0x41, 0x51,
  0x15, 0x8a, 0x14, 0x85, 0x00, 0xa0, 0x0a, 0x15, 0x40, 0x61, 0x28, 0x50, 0x05, 0x22, 0xa0, 0x22, 0x20, 0x10, 0x54, 0xa5,
  0x08, 0x14, 0x05, 0x60, 0xa9, 0x0a, 0x01, 0x05, 0x14, 0x60, 0x04, 0x14, 0x21, 0x10, 0x00, 0x54, 0x80, 0x00, 0xaa, 0x52,
  0x05, 0xa0, 0x52, 0x85, 0x0a, 0x05, 0x08, 0xa8, 0xa2, 0x22, 0x01, 0xaa, 0x54, 0x12, 0x10, 0x0a, 0x2a, 0xa8, 0x82, 0xaa,
  0x0a, 0x05, 0x45, 0x09, 0x82, 0x02, 0x00, 0x04, 0x18, 0x12, 0xa5, 0xaa, 0x06, 0x45, 0x44, 0x40, 0x28, 0x54, 0x00, 0x04,
  0x2a, 0x8a, 0x56, 0x55, 0x40, 0xa0, 0x00, 0x05, 0x02, 0x85, 0x4a, 0x05, 0x01, 0x68, 0x55, 0x00, 0x80, 0xaa, 0xa2, 0x01,
  0x40, 0x45, 0x11, 0x10, 0xaa, 0x8a, 0x54, 0x55, 0x15, 0xa8, 0xa5, 0x14, 0x08, 0x04, 0xa0, 0x42, 0x01, 0xaa, 0x04, 0x00,
  0x54, 0xa8, 0x0a, 0x01, 0x10, 0x95, 0x2a, 0x80, 0x28, 0x08, 0xa0, 0xa0, 0x00, 0x2a, 0x14, 0x00, 0xa8, 0x02, 0xa8, 0x08,
  0xaa, 0x82, 0x0a, 0x2a, 0x14, 0x01, 0xaa, 0x0a, 0x85, 0x12, 0x88, 0x09, 0x14, 0xaa, 0x02, 0x05, 0x54, 0xa9, 0x0a, 0xa1,
  0x81, 0x04, 0x14, 0xa0, 0x42, 0x02, 0x2a, 0x00, 0x04, 0x41, 0x22, 0x0a, 0x80, 0x22, 0x02, 0x10, 0x02, 0x80, 0x40, 0x04,
  0x2a, 0xa8, 0x20, 0x00, 0x02, 0x48, 0xa0, 0x0a, 0x80, 0x40, 0x00, 0x14, 0xa8, 0x82, 0x42, 0x95, 0x00, 0x0a, 0x2a, 0x60,
  0x10, 0x80, 0x5a, 0xa0, 0x56, 0x40, 0x15, 0x02, 0x64, 0x69, 0x14, 0x28, 0x01, 0x08, 0x81, 0x42, 0x40, 0x44, 0xa8, 0x10,
  0x12, 0x00, 0x01, 0x02, 0x14, 0x51, 0x81, 0x06, 0x11, 0xa0, 0x2a, 0x80, 0xa0, 0x52, 0x10, 0x00, 0x14, 0xa4, 0x0a, 0x90,
  0xa0, 0x54, 0x51, 0xa8, 0x04, 0x88, 0x20, 0x00, 0x41, 0x10, 0xa2, 0x00, 0x52, 0xa1, 0x24, 0x15, 0x21, 0x20, 0x10, 0xa1,
  0x52, 0x05, 0x00, 0xaa, 0x2a, 0x05, 0x00, 0x08, 0x10, 0x55, 0x55, 0x10, 0x05, 0x54, 0x41, 0x01, 0xaa, 0x50, 0xaa, 0x54,
  0x55, 0x51, 0x55, 0xa9, 0x0a, 0x15, 0x54, 0x15, 0x00, 0x08, 0x21, 0x10, 0x08, 0x44, 0x08, 0x52, 0x81, 0x82, 0x82, 0x80,
  0x12, 0x25, 0x52, 0xa1, 0x02, 0x04, 0x48, 0xa1, 0xa0, 0x8a, 0x4a, 0x15, 0x28, 0x00, 0x15, 0x4a, 0x54, 0x45, 0x04, 0x54,
  0x00, 0x0a, 0x28, 0x55, 0xa1, 0x2a, 0x4a, 0x04, 0x04, 0x29, 0x55, 0x85, 0x00, 0x80, 0x4a, 0x01, 0x88, 0x8a, 0xa2, 0x42,
  0x20, 0x10, 0x40, 0x85, 0x02, 0x80, 0x0a, 0x00, 0xa0, 0x42, 0xa1, 0x22, 0xa8, 0x2a, 0x25, 0x4a, 0x20, 0x40, 0x15, 0xa0,
  0x02, 0x88, 0x54, 0x84, 0x2a, 0x08, 0x02, 0x55, 0x01, 0xa0, 0x04, 0x2a, 0x10, 0xa0, 0x6a, 0x05, 0x55, 0x15, 0x15, 0x48,
  0x80, 0xaa, 0x24, 0x00, 0x05, 0x44, 0x94, 0x00, 0x15, 0xa0, 0x80, 0x50, 0x85, 0x55, 0x89, 0x16, 0x00, 0xa8, 0x55, 0x81,
  0x4a, 0x40, 0x40, 0x01, 0x88, 0x08, 0x08, 0x84, 0x2a, 0x55, 0xaa, 0x88, 0x44, 0x05, 0xa8, 0x28, 0x42, 0x54, 0x85, 0x60,
  0x05, 0x88, 0x22, 0x29, 0x22, 0x52, 0xa1, 0x20, 0x88, 0x00, 0x22, 0x40, 0x41, 0x55, 0x21, 0x02, 0x15, 0x08, 0x10, 0x81,
  0x12, 0x0a, 0x14, 0x08, 0x80, 0xaa, 0x10, 0x0a, 0x88, 0x10, 0x84, 0x52, 0x55, 0x05, 0x84, 0x00, 0x0a, 0xa4, 0x28, 0x40,
  0x20, 0x54, 0xaa, 0x82, 0xa2, 0x20, 0x54, 0x15, 0x11, 0x8a, 0x0a, 0x10, 0x84, 0xa9, 0x42, 0x54, 0x10, 0xaa, 0x2a, 0xa8,
  0xa8, 0x42, 0x89, 0x08, 0x02, 0x4a, 0xa1, 0x18, 0x50, 0x01, 0x92, 0x02, 0xa2, 0x80, 0x68, 0x05, 0x14, 0x82, 0x00, 0xaa,
  0x10, 0x6a, 0x85, 0x22, 0x58, 0xa1, 0x90, 0x6a, 0x40, 0x40, 0x89, 0x20, 0x85, 0x42, 0x55, 0xa5, 0xaa, 0x50, 0xa1, 0x58,
  0x55, 0x00, 0xa8, 0x00, 0x00, 0x24, 0x00, 0x55, 0x84, 0x08, 0x22, 0x00, 0x01, 0x00, 0x1a, 0x55, 0x28, 0x04, 0x04, 0x00,
  0x4a, 0x50, 0x41, 0x89, 0x42, 0xa1, 0x42, 0x00, 0x01, 0x42, 0xa1, 0x02, 0xa0, 0x02, 0x11, 0x5a, 0x41, 0x81, 0x50, 0xa9,
  0x01, 0x44, 0x00, 0x0a, 0x22, 0x10, 0x55, 0x81, 0x00, 0x2a, 0x52, 0x11, 0x40, 0x00, 0x01, 0x54, 0x44, 0x41, 0x91, 0x80,
  0x80, 0x4a, 0x84, 0x08, 0x08, 0x55, 0x40, 0x08, 0x40, 0x21, 0x08, 0x40, 0x09, 0x11, 0x1a, 0xa1, 0x0a, 0x46, 0x45, 0x08,
  0x84, 0x06, 0x21, 0x28, 0x55, 0x54, 0x14, 0x96, 0x2a, 0x4a, 0x12, 0x85, 0x40, 0x20, 0x10, 0xa0, 0x11, 0x00, 0x40, 0x01,
  0x08, 0x00, 0x20, 0x52, 0x10, 0x00, 0xa1, 0x28, 0x54, 0x05, 0x05, 0x12, 0x00, 0x00, 0x14, 0x40, 0x80, 0x40, 0x14, 0x20,
  0x00, 0x12, 0x01, 0x02, 0x80, 0x10, 0x81, 0x10, 0x00, 0x50, 0x04, 0x0a, 0x05, 0x01, 0x80, 0x02, 0x4a, 0x05, 0x44, 0x6a,
  0x56, 0x44, 0x55, 0x40, 0x00, 0xa0, 0x40, 0x15, 0x10, 0x55, 0x15, 0x28, 0x80, 0x6a, 0x48, 0x50, 0x10, 0x10, 0x20, 0x55,
  0x40, 0x54, 0x55, 0x01, 0x80, 0x20, 0x22, 0x46, 0x04, 0x05, 0x02, 0x04, 0x8a, 0x14, 0x65, 0x04, 0x11, 0x85, 0x50, 0x04,
  0x42, 0x05, 0x51, 0x54, 0x81, 0x0a, 0x10, 0x20, 0x40, 0x45, 0x56, 0x21, 0x16, 0x61, 0x00, 0xa0, 0x48, 0x45, 0x2a, 0x08,
  0x00, 0x20, 0x01, 0x22, 0x80, 0x54, 0x16, 0x68, 0x10, 0x00, 0x09, 0x02, 0x56, 0x80, 0x02, 0x05, 0x81, 0x08, 0x21, 0x80,
  0x80, 0xa8, 0x52, 0x11, 0x00, 0xa0, 0x02, 0x06, 0x21, 0xa8, 0x04, 0x4a, 0x15, 0x15, 0x2a, 0x22, 0x04, 0x55, 0x62, 0x60,
  0x41, 0x01, 0x15, 0x01, 0x0a, 0x22, 0x11, 0x51, 0x00, 0x92, 0xaa, 0x20, 0x02, 0x54, 0x08, 0x60, 0x21, 0x06, 0x45, 0x28,
  0x50, 0x20, 0x11, 0x22, 0x51, 0x01, 0x20, 0x50, 0xa8, 0x44, 0x81, 0x40, 0xa0, 0x40, 0x85, 0x02, 0x40, 0x15, 0x6a, 0x80,
  0x1a, 0x95, 0x4a, 0x81, 0x58, 0x54, 0x11, 0x2a, 0x04, 0x5a, 0xa8, 0xaa, 0x40, 0x80, 0x22, 0xa4, 0x52, 0x21, 0x40, 0x20,
  0x20, 0x02, 0x62, 0x20, 0x0a, 0x20, 0x00, 0x19, 0x08, 0x46, 0x81, 0x44, 0xa8, 0xaa, 0x80, 0x0a, 0x00, 0x80, 0x5a, 0x84,
  0x02, 0x28, 0x0a, 0x1a, 0x80, 0x0a, 0x80, 0x10, 0x55, 0x85, 0x42, 0x00, 0x80, 0x00, 0x40, 0xa8, 0x2a, 0x08, 0x52, 0x95,
  0x04, 0x21, 0x40, 0x40, 0x15, 0x01, 0x54, 0xa8, 0x12, 0x10, 0x11, 0x22, 0x80, 0x08, 0x81, 0x08, 0x88, 0x0a, 0x10, 0x04,
  0x00, 0x12, 0x08, 0x42, 0x54, 0x84, 0xaa, 0x08, 0x0a, 0x84, 0x16, 0x80, 0xaa, 0x14, 0xa5, 0x02, 0xa4, 0x22, 0x54, 0x28,
  0x05, 0x02, 0x52, 0xa1, 0x14, 0x50, 0xa9, 0x80, 0x56, 0x41, 0x5a, 0xa8, 0x42, 0x15, 0x60, 0x11, 0x11, 0x08, 0xa0, 0x04,
  0x01, 0xa8, 0x00, 0x08, 0x81, 0x01, 0x82, 0x18, 0x20, 0x54, 0x88, 0x06, 0xa8, 0x56, 0x80, 0x81, 0x20, 0x04, 0xa0, 0x40,
  0x00, 0x10, 0x02, 0x15, 0x82, 0x80, 0x00, 0xa2, 0xaa, 0x22, 0x85, 0x16, 0x10, 0x24, 0x86, 0x0a, 0x48, 0x95, 0x42, 0x65,
  0xa1, 0x40, 0x95, 0x1a, 0x04, 0x54, 0x00, 0x02, 0xa8, 0x2a, 0x05, 0x54, 0x22, 0x02, 0x4a, 0x05, 0x01, 0x52, 0x21, 0x48,
  0x15, 0x55, 0x00, 0x2a, 0x2a, 0x44, 0x05, 0x04, 0x00, 0xa8, 0x52, 0x15, 0x21, 0x0a, 0x01, 0x50, 0x08, 0x01, 0x14, 0x2a,
  0x00, 0x05, 0x20, 0x50, 0x08, 0x04, 0x28, 0x51, 0x15, 0x95, 0x89, 0x08, 0x28, 0x05, 0x8a, 0x54, 0x41, 0x11, 0xa8, 0x5a,
  0x81, 0x68, 0x10, 0x28, 0x14, 0x80, 0x42, 0x24, 0x22, 0x80, 0x04, 0x84, 0x02, 0x88, 0x04, 0x22, 0x00, 0x00, 0x80, 0x50,
  0x84, 0x0a, 0x51, 0x10, 0x45, 0x29, 0x15, 0x00, 0x20, 0x92, 0x28, 0x05, 0x80, 0x00, 0x41, 0x55, 0x85, 0x84, 0x00, 0x9a,
  0x02, 0x21, 0x51, 0xaa, 0x54, 0x20, 0x14, 0x81, 0xaa, 0x0a, 0x40, 0x55, 0x85, 0x04, 0x80, 0xaa, 0x00, 0x80, 0x20, 0x01,
  0x40, 0x91, 0xaa, 0x2a, 0xaa, 0x42, 0xa1, 0x02, 0x85, 0x02, 0x55, 0x85, 0x46, 0xa9, 0x08, 0xa4, 0x8a, 0x02, 0x00, 0x68,
  0x40, 0x05, 0x00, 0x80, 0x08, 0x06, 0x55, 0x01, 0x08, 0xa1, 0x0a, 0x2a, 0x50, 0xa9, 0x40, 0x12, 0x54, 0x00, 0xaa, 0x54,
  0xa1, 0x41, 0x68, 0x20, 0x54, 0x04, 0x50, 0xa5, 0x40, 0x85, 0x48, 0x40, 0x18, 0x41, 0x01, 0x88, 0x14, 0x2a, 0x48, 0x21,
  0x01, 0x20, 0xa2, 0x48, 0x09, 0x01, 0x05, 0x02, 0x00, 0x40, 0xa1, 0x0a, 0x28, 0x2a, 0x15, 0x48, 0x15, 0x00, 0xaa, 0x54,
  0x00, 0x48, 0x44, 0x01, 0x55, 0x02, 0x68, 0x25, 0x14, 0xaa, 0x06, 0x54, 0x00, 0xaa, 0x50, 0x01, 0xa8, 0x40, 0x54, 0xa0,
  0x56, 0x44, 0x28, 0x80, 0x14, 0xa8, 0x56, 0x20, 0x28, 0x04, 0x50, 0x11, 0xa1, 0x4a, 0xa9, 0x04, 0x80, 0x02, 0xaa, 0x16,
  0x55, 0x20, 0x14, 0x2a, 0x08, 0x00, 0x02, 0x10, 0x55, 0x85, 0x81, 0x0a, 0x44, 0xa1, 0x48, 0x42, 0x21, 0x12, 0xa8, 0x10,
  0x20, 0x44, 0x15, 0x89, 0x52, 0x80, 0x50, 0x02, 0x42, 0x05, 0x82, 0x08, 0x02, 0x00, 0x01, 0x68, 0x04, 0x01, 0x15, 0x80,
  0x40, 0xa2, 0x40, 0x28, 0x08, 0x05, 0x41, 0x02, 0x00, 0x54, 0x85, 0x0a, 0x11, 0x00, 0x54, 0x01, 0x22, 0x91, 0xaa, 0x84,
  0xa0, 0xaa, 0x00, 0x00, 0x54, 0x00, 0x04, 0x18, 0x54, 0xa1, 0x12, 0x00, 0x44, 0x81, 0x42, 0x80, 0xa0, 0x0a, 0x08, 0x50,
  0x44, 0xa8, 0x10, 0x00, 0x90, 0x40, 0x20, 0xa0, 0x08, 0x81, 0x8a, 0x00, 0x40, 0x15, 0x08, 0x28, 0x15, 0x80, 0x2a, 0x94,
  0x02, 0x44, 0xa0, 0x10, 0x82, 0x48, 0x45, 0xa8, 0x5a, 0x95, 0x85, 0x02, 0x2a, 0x50, 0x41, 0x50, 0x20, 0x08, 0x15, 0x00,
  0x00, 0xaa, 0x08, 0x80, 0xaa, 0x80, 0x80, 0x88, 0xa8, 0x54, 0x04, 0xa9, 0x2a, 0x15, 0x24, 0x82, 0x0a, 0x2a, 0x0a, 0x0a,
  0x00, 0xa8, 0x14, 0x22, 0x19, 0x44, 0x00, 0x01, 0x2a, 0x90, 0x00, 0x52, 0x50, 0x10, 0x05, 0xaa, 0xaa, 0x02, 0x48, 0x94,
  0x02, 0x82, 0x8a, 0x85, 0x4a, 0x11, 0xa0, 0x54, 0x54, 0x15, 0x08, 0xaa, 0xaa, 0x22, 0x51, 0x55, 0x88, 0xa4, 0x14, 0x95,
  0x8a, 0x88, 0xaa, 0x4a, 0x55, 0x02, 0x11, 0x14, 0x15, 0x22, 0xa2, 0xaa, 0x2a, 0x54, 0x15, 0x01, 0x28, 0x68, 0x01, 0x40,
  0x55, 0xa8, 0x02, 0x00, 0xa1, 0xa8, 0xaa, 0x52, 0x21, 0x55, 0x48, 0x21, 0x80, 0x14, 0x10, 0x10, 0x4a, 0x55, 0x55, 0x05,
  0x41, 0x81, 0x8a, 0x2a, 0x00, 0x08, 0x41, 0x08, 0x14, 0x22, 0x0a, 0x28, 0x51, 0x01, 0xa0, 0x02, 0x55, 0x20, 0x84, 0xa2,
  0x0a, 0x28, 0x00, 0xa0, 0x94, 0x01, 0x04, 0x48, 0x01, 0x28, 0x82, 0x52, 0x80, 0x80, 0x02, 0x8a, 0x28, 0x51, 0x51, 0x85,
  0x0a, 0x15, 0x0a, 0x44, 0x88, 0x14, 0xaa, 0x0a, 0x55, 0x85, 0x00, 0xa0, 0x54, 0xa0, 0x50, 0x05, 0x00, 0x28, 0x02, 0x0a,
  0x81, 0x2a, 0x04, 0x00, 0x00, 0x51, 0x20, 0x54, 0x8a, 0x00, 0x84, 0x08, 0x50, 0x21, 0x02, 0xaa, 0x21, 0x04, 0x41, 0x51,
  0x01, 0x48, 0x01, 0x15, 0x22, 0x85, 0xa2, 0x0a, 0x62, 0x54, 0x15, 0x80, 0xa0, 0x18, 0xa0, 0x06, 0x14, 0x29, 0x04, 0x01,
  0x10, 0xa0, 0x80, 0xa2, 0x00, 0x08, 0x05, 0x04, 0x28, 0x50, 0x21, 0x58, 0xa0, 0x40, 0x52, 0x85, 0x4a, 0x04, 0x08, 0x00,
  0x90, 0x40, 0x85, 0x2a, 0x15, 0x00, 0x20, 0x08, 0x41, 0x81, 0xa0, 0x44, 0x29, 0x54, 0x40, 0x11, 0x80, 0x02, 0x06, 0x5a,
  0x52, 0x15, 0xa8, 0x54, 0x04, 0x41, 0x15, 0x48, 0x42, 0x81, 0x42, 0x04, 0x20, 0x84, 0x6a, 0x28, 0x01, 0x00, 0xa0, 0x88,
  0xa8, 0x08, 0x15, 0x88, 0x51, 0x20, 0x28, 0x14, 0x0a, 0x2a, 0x21, 0xa1, 0x84, 0x02, 0x2a, 0x00, 0xa8, 0x00, 0x02, 0x20,
  0x02, 0x00, 0x20, 0x54, 0xa0, 0x2a, 0x10, 0x28, 0x14, 0x6a, 0xaa, 0xa8, 0xa2, 0x00, 0x05, 0x55, 0x15, 0x01, 0xa8, 0x28,
  0x22, 0x05, 0x90, 0xa0, 0xaa, 0x12, 0x00, 0x14, 0x08, 0x28, 0x00, 0x42, 0x14, 0x50, 0x55, 0x01, 0x50, 0x00, 0xaa, 0xa2,
  0x12, 0x01, 0x82, 0x1a, 0x20, 0x02, 0x08, 0x54, 0x01, 0x12, 0x15, 0x20, 0x84, 0xaa, 0x20, 0xaa, 0x20, 0x80, 0x28, 0xa8,
  0x46, 0x05, 0x56, 0x01, 0xa0, 0x10, 0xa8, 0x10, 0x8a, 0x40, 0x00, 0x80, 0x52, 0x20, 0x52, 0x00, 0x10, 0x4a, 0x10, 0xa8,
  0x0a, 0x10, 0x24, 0x82, 0x00, 0x15, 0x85, 0x40, 0x01, 0xa0, 0xaa, 0x5a, 0x41, 0x54, 0x44, 0xa8, 0x20, 0xa0, 0x0a, 0x55,
  0x05, 0x00, 0x4a, 0x10, 0x81, 0x82, 0x42, 0x09, 0x15, 0x95, 0xa8, 0x68, 0x51, 0x05, 0x01, 0x82, 0x02, 0x05, 0x81, 0xa8,
  0x2a, 0x80, 0x82, 0x00, 0x50, 0x81, 0x2a, 0x04, 0x50, 0x80, 0x8a, 0x22, 0x00, 0x88, 0x12, 0x28, 0x00, 0x80, 0x82, 0x02,
  0x01, 0x22, 0xa8, 0x00, 0x10, 0x50, 0x01, 0x40, 0x08, 0x00, 0x01, 0x00, 0x40, 0xa0, 0xaa, 0x28, 0x12, 0x14, 0x55, 0x45,
  0x2a, 0x11, 0x50, 0x09, 0x90, 0x0a, 0x00, 0x6a, 0x04, 0x45, 0x01, 0x40, 0x6a, 0x04, 0x20, 0x41, 0x80, 0x40, 0xaa, 0x44,
  0x01, 0x00, 0x40, 0x28, 0x14, 0x20, 0x90, 0x00, 0x42, 0x50, 0x04, 0x14, 0x80, 0x29, 0x00, 0x5a, 0x15, 0x00, 0x8a, 0x40,
  0x20, 0x85, 0x14, 0x08, 0xa1, 0x02, 0x12, 0x28, 0x90, 0x95, 0xa0, 0x00, 0x4a, 0x04, 0x80, 0x00, 0xa8, 0x48, 0x40, 0x41,
  0x14, 0x80, 0x80, 0xa0, 0x00, 0x81, 0x04, 0x80, 0x54, 0x20, 0x11, 0xaa, 0x10, 0x12, 0x08, 0x80, 0x42, 0x11, 0x2a, 0x11,
  0xa0, 0x42, 0x29, 0x54, 0xa0, 0x52, 0x10, 0x00, 0x22, 0x80, 0x50, 0x20, 0x44, 0x80, 0x10, 0x01, 0x82, 0xa8, 0x06, 0x41,
  0x8a, 0x62, 0x81, 0x00, 0x05, 0xa8, 0x02, 0x12, 0x28, 0x28, 0x8a, 0x50, 0x00, 0x50, 0x60, 0x05, 0x04, 0x22, 0x08, 0x21,
  0x44, 0x08, 0x60, 0x01, 0x48, 0x54, 0x20, 0x52, 0x09, 0x00, 0x40, 0x80, 0x40, 0x04, 0x51, 0x55, 0x60, 0x11, 0x22, 0xa8,
  0x5a, 0x55, 0x81, 0x8a, 0x10, 0x8a, 0x10, 0x00, 0x14, 0x6a, 0x40, 0x80, 0x00, 0x28, 0x80, 0x02, 0x28, 0xa2, 0x45, 0x10,
  0x55, 0x01, 0x80, 0x80, 0x8a, 0x54, 0xa4, 0x02, 0x00, 0x10, 0x00, 0xa0, 0x0a, 0xa0, 0x02, 0x01, 0x04, 0x08, 0x82, 0x80,
  0x40, 0x0a, 0x40, 0x12, 0x89, 0x2a, 0x0a, 0x45, 0x02, 0xa0, 0x56, 0x40, 0x51, 0xa0, 0x2a, 0x28, 0x81, 0x8a, 0x08, 0x42,
  0x40, 0x51, 0x82, 0x10, 0x28, 0x80, 0x12, 0x50, 0x05, 0x14, 0x02, 0x08, 0x00, 0x42, 0x84, 0x0a, 0x90, 0x50, 0x01, 0x01,
  0x01, 0x20, 0x09, 0x82, 0x40, 0x01, 0x22, 0x01, 0x81, 0x02, 0x08, 0x41, 0x50, 0x28, 0x02, 0x00, 0x08, 0x00, 0x54, 0x10,
  0xa0, 0x00, 0x88, 0x52, 0x84, 0x6a, 0x40, 0x01, 0x1a, 0x95, 0x04, 0x8a, 0x50, 0xa0, 0x45, 0x10, 0x90, 0xa0, 0x54, 0x10,
  0x05, 0x88, 0x02, 0x68, 0xa9, 0x42, 0x85, 0x54, 0x55, 0x81, 0x04, 0xa0, 0x28, 0x40, 0x44, 0x04, 0x16, 0xaa, 0x04, 0x00,
  0x21, 0xa1, 0x02, 0x04, 0x00, 0x10, 0x40, 0x00, 0x00, 0x01, 0x11, 0xaa, 0x02, 0xa8, 0x0a, 0xa8, 0x55, 0x84, 0x08, 0x94,
  0x80, 0x0a, 0x10, 0x4a, 0x95, 0x00, 0x40, 0x81, 0x02, 0x05, 0xa0, 0x10, 0xaa, 0x0a, 0x85, 0x40, 0x50, 0x81, 0x10, 0x02,
  0x0a, 0x01, 0x08, 0x58, 0x00, 0x4a, 0x40, 0x82, 0x40, 0x42, 0x40, 0x80, 0x08, 0x50, 0xa8, 0x52, 0x41, 0x84, 0x80, 0x16,
  0x54, 0xa8, 0x02, 0x08, 0x18, 0x05, 0x88, 0x42, 0x08, 0x94, 0x02, 0x11, 0x40, 0x8a, 0xa2, 0x88, 0x08, 0x08, 0x04, 0xaa,
  0x0a, 0x00, 0x54, 0x29, 0x28, 0x0a, 0x62, 0x18, 0x88, 0x6a, 0x50, 0x01, 0x10, 0xa0, 0x10, 0xa8, 0x00, 0x00, 0x08, 0x10,
  0xa8, 0x82, 0x02, 0x51, 0x01, 0x00, 0x00, 0x02, 0x08, 0x14, 0x40, 0x05, 0x00, 0x14, 0x2a, 0x00, 0x02, 0x68, 0x11, 0x88,
  0x01, 0x90, 0x20, 0x52, 0x45, 0xa9, 0x51, 0x00, 0x82, 0x2a, 0x05, 0x00, 0x00, 0x08, 0x45, 0x50, 0x01, 0x00, 0xaa, 0x42,
  0x81, 0x00, 0xa9, 0x42, 0x60, 0x55, 0x01, 0xaa, 0x22, 0x8a, 0x50, 0x84, 0x60, 0x05, 0x21, 0x88, 0x14, 0x15, 0x2a, 0x00,
  0x42, 0x01, 0xaa, 0x56, 0x55, 0x05, 0x04, 0x00, 0x20, 0x5a, 0x4a, 0x15, 0xaa, 0x51, 0x04, 0x01, 0x54, 0xa1, 0x2a, 0x54,
  0x00, 0x48, 0x61, 0xa1, 0x50, 0x2a, 0x04, 0x41, 0x85, 0x0a, 0x85, 0x88, 0x08, 0x40, 0x01, 0x8a, 0xa8, 0x08, 0x08, 0x40,
  0x01, 0x00, 0x40, 0xa8, 0x00, 0xa0, 0x46, 0x81, 0x42, 0x61, 0x80, 0x04, 0xaa, 0xaa, 0x00, 0x55, 0x95, 0x52, 0x2a, 0x52,
  0x05, 0x09, 0x10, 0x15, 0x2a, 0x80, 0x48, 0x02, 0x50, 0x15, 0x45, 0xa8, 0x04, 0x10, 0x05, 0x20, 0x54, 0x68, 0x54, 0x51,
  0x41, 0x10, 0x88, 0x02, 0x94, 0x42, 0x50, 0x05, 0x44, 0xa0, 0x04, 0x00, 0xa8, 0x00, 0xaa, 0x5a, 0xa0, 0x40, 0x01, 0x02,
  0x54, 0x28, 0x62, 0x88, 0x22, 0x80, 0x22, 0x0a, 0xa0, 0x96, 0x61, 0x0a, 0x02, 0xa5, 0x5a, 0x21, 0x12, 0x00, 0x54, 0x84,
  0x12, 0x02, 0x40, 0x40, 0x55, 0xa8, 0x00, 0x04, 0xaa, 0x10, 0x16, 0x55, 0x81, 0x14, 0x46, 0x88, 0x52, 0x41, 0x55, 0x80,
  0x51, 0x41, 0xa0, 0x15, 0x05, 0x40, 0x81, 0x20, 0x08, 0x80, 0x46, 0x05, 0x12, 0x00, 0x09, 0x82, 0x04, 0x2a, 0x14, 0x94,
  0x48, 0x14, 0x10, 0x22, 0x50, 0x45, 0x55, 0x01, 0x41, 0x00, 0x89, 0x40, 0x01, 0x08, 0x00, 0x40, 0x01, 0x54, 0x50, 0x55,
  0xa1, 0x20, 0x00, 0x42, 0x00, 0x02, 0x82, 0x0a, 0x40, 0x15, 0x10, 0x02, 0x15, 0x98, 0x06, 0x04, 0x20, 0x00, 0xaa, 0x15,
  0x22, 0x0a, 0x80, 0x12, 0x00, 0x10, 0x00, 0xa0, 0x12, 0xa8, 0x28, 0x11, 0x01, 0x51, 0x01, 0x8a, 0x02, 0x00, 0x4a, 0x05,
  0x18, 0x28, 0x01, 0x84, 0x2a, 0x20, 0x05, 0x2a, 0x55, 0x54, 0x10, 0x42, 0xa9, 0x02, 0x10, 0x00, 0x44, 0x80, 0x00, 0x45,
  0x40, 0x00, 0x50, 0x14, 0x08, 0x40, 0xa8, 0x12, 0x40, 0x45, 0x91, 0x40, 0x82, 0x40, 0x05, 0x02, 0x05, 0x08, 0x18, 0x98,
  0x45, 0xa1, 0x50, 0x25, 0x28, 0x50, 0x05, 0xa8, 0x18, 0x20, 0x42, 0x42, 0x08, 0x24, 0x00, 0x08, 0x55, 0x84, 0x28, 0x04,
  0x02, 0x00, 0x01, 0xa8, 0x5a, 0x00, 0x88, 0x45, 0x88, 0x08, 0x84, 0x40, 0x05, 0xa8, 0x84, 0x42, 0x85, 0x2a, 0x21, 0x04,
  0x08, 0x15, 0x2a, 0x48, 0x01, 0x22, 0x56, 0x81, 0x00, 0x94, 0x28, 0x2a, 0x01, 0x50, 0x4a, 0x80, 0x02, 0x0a, 0x80, 0x84,
  0x42, 0x28, 0x05, 0x14, 0x2a, 0xa8, 0x92, 0x8a, 0x00, 0x50, 0x2a, 0x08, 0x01, 0x80, 0x8a, 0x40, 0xa8, 0x0a, 0x28, 0x8a,
  0x00, 0x48, 0x08, 0x14, 0x02, 0xa2, 0x02, 0x42, 0x55, 0x02, 0x90, 0x60, 0x42, 0x00, 0x00, 0x18, 0x40, 0xa8, 0x0a, 0x95,
  0x11, 0x8a, 0x4a, 0x90, 0x0a, 0x84, 0x0a, 0xa1, 0x10, 0x81, 0x14, 0x21, 0x40, 0x21, 0x88, 0x00, 0x06, 0x01, 0x02, 0x00,
  0x00, 0x14, 0x50, 0x04, 0x8a, 0x01, 0x02, 0x80, 0x00, 0x48, 0xa1, 0x42, 0x42, 0x01, 0x05, 0x08, 0x48, 0x89, 0x1a, 0x05,
  0xa1, 0x15, 0x0a, 0xaa, 0x96, 0x56, 0x28, 0x81, 0x84, 0x92, 0x20, 0x02, 0x15, 0x11, 0x84, 0x94, 0x08, 0x02, 0x81, 0x08,
  0x00, 0x84, 0x52, 0x21, 0x05, 0x81, 0xaa, 0x54, 0x21, 0x40, 0x55, 0x91, 0x02, 0x81, 0x42, 0x81, 0x02, 0x00, 0x45, 0x11,
  0x55, 0xa8, 0x54, 0x2a, 0x44, 0x40, 0x44, 0x50, 0x20, 0x54, 0xa5, 0x42, 0xa1, 0x56, 0x28, 0x41, 0x54, 0x08, 0x6a, 0x69,
  0x50, 0xa8, 0x44, 0x14, 0x40, 0x0a, 0x22, 0x04, 0xaa, 0x04, 0x10, 0x80, 0x02, 0xa1, 0xa0, 0x80, 0x28, 0x04, 0x54, 0xa1,
  0x02, 0x52, 0x05, 0x08, 0x01, 0x00, 0x55, 0x80, 0x80, 0x00, 0x00, 0x44, 0x08, 0x40, 0x11, 0x40, 0x55, 0x05, 0x88, 0x56,
  0x00, 0x80, 0x15, 0x40, 0xa1, 0x15, 0x52, 0xa0, 0x29, 0xa5, 0x2a, 0x56, 0x01, 0x08, 0x56, 0x08, 0x40, 0x14, 0xa8, 0x02,
  0x40, 0x14, 0x42, 0x51, 0xa0, 0x12, 0x40, 0x00, 0x81, 0x84, 0x42, 0x21, 0x52, 0x15, 0x81, 0xa0, 0xaa, 0x4a, 0x15, 0x55,
  0x15, 0x22, 0x55, 0x08, 0x82, 0x8a, 0x44, 0x50, 0x01, 0x11, 0x20, 0x00, 0xa4, 0x50, 0x10, 0x04, 0x40, 0xa0, 0x42, 0x65,
  0xa9, 0x51, 0xa0, 0x42, 0x21, 0x80, 0x40, 0x05, 0x01, 0x10, 0x02, 0x08, 0x80, 0x50, 0xa8, 0x52, 0x50, 0x2a, 0x05, 0x00,
  0x82, 0x08, 0x04, 0x54, 0x10, 0x55, 0x80, 0x0a, 0x28, 0xa0, 0x02, 0x2a, 0x55, 0x48, 0x15, 0x24, 0x90, 0x08, 0x05, 0x51,
  0x80, 0x48, 0xa0, 0x10, 0x08, 0x61, 0x80, 0x14, 0x6a, 0x68, 0x51, 0x41, 0x28, 0x80, 0x04, 0x09, 0x40, 0x08, 0x40, 0x91,
  0x00, 0x50, 0x09, 0x01, 0x06, 0x10, 0x60, 0x05, 0x09, 0x04, 0x02, 0x02, 0x40, 0x00, 0x15, 0x21, 0x08, 0xa0, 0x00, 0x08,
  0x14, 0x14, 0x08, 0x05, 0xa0, 0x08, 0x80, 0xa0, 0x51, 0x00, 0x54, 0xa9, 0x44, 0x02, 0x28, 0x40, 0x10, 0x18, 0x01, 0x94,
  0xa4, 0xa9, 0x02, 0x00, 0x48, 0x80, 0xaa, 0xa8, 0x42, 0x11, 0xa1, 0x82, 0xa0, 0x0a, 0xa8, 0x00, 0x55, 0x91, 0x15, 0x80,
  0x2a, 0x02, 0x28, 0x40, 0xa9, 0x55, 0x41, 0x10, 0x95, 0xaa, 0x80, 0x22, 0x50, 0x88, 0x40, 0x15, 0x54, 0x06, 0x20, 0xa8,
  0x92, 0x0a, 0x01, 0x00, 0x00, 0x25, 0x28, 0x20, 0x42, 0x68, 0xaa, 0x50, 0x48, 0xa0, 0x00, 0x52, 0x01, 0xa1, 0x08, 0x51,
  0x81, 0x22, 0xa1, 0x02, 0x15, 0x4a, 0x44, 0x00, 0x50, 0x04, 0x80, 0x88, 0x44, 0x08, 0x4a, 0x20, 0x86, 0x28, 0x00, 0x80,
  0x56, 0x08, 0x15, 0x46, 0x94, 0x02, 0x50, 0x02, 0x18, 0x15, 0x2a, 0x52, 0x21, 0x04, 0x08, 0xa8, 0x02, 0x68, 0x51, 0x81,
  0x20, 0x00, 0x00, 0x4a, 0x54, 0x00, 0x04, 0x20, 0x80, 0x80, 0x02, 0x88, 0x84, 0x50, 0x12, 0x95, 0x0a, 0x80, 0x00, 0x04,
  0x00, 0x00, 0xa0, 0xaa, 0x84, 0x10, 0x44, 0x48, 0x55, 0x28, 0x04, 0x04, 0xa0, 0x16, 0x28, 0x14, 0x85, 0x22, 0x80, 0xa0,
  0x00, 0x11, 0x40, 0x55, 0x25, 0x08, 0x2a, 0x45, 0x21, 0x52, 0x80, 0x00, 0x28, 0x05, 0x04, 0x01, 0x81, 0x12, 0xa8, 0x22,
  0x00, 0x10, 0x00, 0x00, 0x12, 0x04, 0xa0, 0x54, 0x41, 0x00, 0x85, 0x02, 0x10, 0x81, 0x00, 0x28, 0x20, 0x94, 0x44, 0xa8,
  0x20, 0xa0, 0x40, 0x04, 0x51, 0x25, 0x85, 0x02, 0x08, 0x81, 0x00, 0xa0, 0x50, 0x01, 0x81, 0x08, 0x88, 0x04, 0x62, 0x52,
  0x2a, 0x58, 0x08, 0x81, 0x12, 0xa0, 0x08, 0x02, 0x02, 0xa1, 0x88, 0x08, 0x52, 0x01, 0x54, 0x80, 0x8a, 0x2a, 0x2a, 0xa8,
  0x00, 0xaa, 0x01, 0x52, 0xa9, 0xaa, 0x20, 0x2a, 0x80, 0x2a, 0x40, 0x05, 0x05, 0x14, 0xa8, 0x50, 0x0a, 0x20, 0x20, 0x10,
  0x44, 0x08, 0x50, 0x29, 0x08, 0xa8, 0x5a, 0x05, 0x5a, 0x95, 0x42, 0x00, 0x50, 0xa5, 0x52, 0xa8, 0x2a, 0x85, 0x00, 0x05,
  0xa0, 0x00, 0x21, 0x20, 0x40, 0x09, 0x54, 0x08, 0x08, 0x28, 0x49, 0x10, 0x00, 0x02, 0x22, 0x00, 0x00, 0x11, 0xa1, 0x52,
  0x01, 0xa0, 0x20, 0x00, 0x00, 0x00, 0x18, 0x05, 0x20, 0x00, 0x44, 0x00, 0x04, 0x06, 0xa9, 0xa2, 0x00, 0x80, 0x44, 0x60,
  0x15, 0x2a, 0x50, 0x68, 0x11, 0x00, 0x02, 0x2a, 0x40, 0x08, 0x21, 0x12, 0x42, 0x00, 0x40, 0x04, 0x05, 0x02, 0x00, 0x20,
  0x81, 0x0a, 0x90, 0x0a, 0x0a, 0x55, 0x41, 0x15, 0x08, 0x14, 0xaa, 0x00, 0x82, 0x28, 0x14, 0x05, 0x55, 0xa1, 0x10, 0xa0,
  0x12, 0x29, 0x04, 0x10, 0x08, 0xa9, 0x89, 0x14, 0x44, 0x60, 0xa4, 0x80, 0x42, 0x15, 0x18, 0x8a, 0xaa, 0x21, 0x40, 0x28,
  0x95, 0x12, 0x80, 0x2a, 0x0a, 0x55, 0x00, 0x05, 0x82, 0x00, 0xa5, 0x22, 0x41, 0x04, 0xaa, 0x08, 0x15, 0x82, 0x82, 0x52,
  0x45, 0x44, 0xa1, 0x04, 0x2a, 0x00, 0x00, 0x04, 0xa8, 0x04, 0x0a, 0x00, 0x05, 0x02, 0x08, 0x8a, 0x90, 0x0a, 0x20, 0x48,
  0x6a, 0x2a, 0x54, 0x15, 0x40, 0x08, 0x04, 0x18, 0x42, 0x55, 0x05, 0x80, 0x8a, 0x0a, 0x82, 0x02, 0x00, 0x0a, 0x05, 0x51,
  0x51, 0x11, 0x01, 0xa8, 0x80, 0x00, 0x2a, 0x22, 0x44, 0x15, 0x22, 0xa0, 0x40, 0x41, 0x00, 0x50, 0x11, 0x48, 0x05, 0x28,
  0x82, 0x18, 0x55, 0x81, 0x21, 0x02, 0x20, 0x00, 0x58, 0xa5, 0xa9, 0x4a, 0x55, 0x28, 0x05, 0x80, 0xaa, 0x0a, 0x81, 0x50,
  0x80, 0xa0, 0x8a, 0xaa, 0x42, 0x05, 0x08, 0x15, 0x20, 0x02, 0x42, 0x88, 0x20, 0xa0, 0x4a, 0x55, 0xa2, 0x00, 0x80, 0x8a,
  0xa2, 0x40, 0xa8, 0x80, 0x40, 0x40, 0xa8, 0x80, 0x4a, 0x20, 0x84, 0x10, 0x8a, 0xa8, 0x02, 0x10, 0x28, 0x54, 0x98, 0xa8,
  0x02, 0x2a, 0x08, 0x40, 0x05, 0x88, 0x2a, 0x20, 0x22, 0x54, 0x00, 0xa2, 0xa2, 0x00, 0x08, 0x55, 0x60, 0x01, 0x00, 0x00,
  0x04, 0x2a, 0x04, 0x8a, 0x80, 0x0a, 0x04, 0x2a, 0x55, 0xa4, 0x08, 0x04, 0x01, 0x55, 0x81, 0x52, 0x01, 0x28, 0x04, 0xa0,
  0x56, 0x08, 0x50, 0x01, 0x02, 0x88, 0x2a, 0x11, 0x2a, 0x85, 0x16, 0x5a, 0x11, 0x25, 0x81, 0x26, 0x01, 0x40, 0x55, 0x28,
  0x40, 0x88, 0x54, 0x05, 0x04, 0x52, 0x2a, 0xa8, 0x14, 0x00, 0x40, 0x10, 0x40, 0x55, 0xa2, 0x42, 0x55, 0x95, 0x08, 0xa2,
  0x0a, 0xa8, 0x52, 0x51, 0x10, 0xaa, 0x2a, 0x54, 0x40, 0x41, 0xa0, 0xaa, 0x21, 0x01, 0xaa, 0x48, 0x15, 0x02, 0x20, 0x48,
  0x52, 0x95, 0x08, 0x20, 0x80, 0x08, 0x25, 0x15, 0x02, 0x0a, 0x48, 0x01, 0x02, 0x00, 0x12, 0x1a, 0xa4, 0x12, 0x81, 0x48,
  0x80, 0x00, 0x00, 0x01, 0x00, 0x04, 0x50, 0x25, 0x02, 0x08, 0x6a, 0x85, 0x5a, 0x29, 0x85, 0x02, 0x46, 0xa9, 0x15, 0x82,
  0x08, 0x00, 0x15, 0x45, 0x21, 0x84, 0x0a, 0x50, 0xa5, 0x52, 0x41, 0x80, 0x00, 0x00, 0xaa, 0x20, 0x50, 0x55, 0x11, 0x48,
  0x4a, 0xa8, 0x08, 0x81, 0x02, 0x2a, 0x40, 0x14, 0x21, 0x55, 0x20, 0x55, 0x15, 0x20, 0xa1, 0x4a, 0x00, 0xa2, 0x88, 0x04,
  0xa8, 0x10, 0x00, 0x88, 0x00, 0x00, 0x5a, 0x15, 0x2a, 0x11, 0x55, 0x55, 0x89, 0xaa, 0x42, 0x21, 0x46, 0x50, 0x24, 0x5a,
  0xa1, 0x4a, 0x45, 0x2a, 0x54, 0x05, 0x88, 0x42, 0xa1, 0x0a, 0x45, 0x85, 0x28, 0x08, 0x11, 0x05, 0x22, 0x06, 0x40, 0xaa,
  0x4a, 0xa4, 0x02, 0x41, 0x11, 0x44, 0x04, 0xa0, 0x08, 0x68, 0x55, 0x50, 0xa0, 0x56, 0x20, 0x00, 0xa8, 0x40, 0x18, 0x55,
  0x44, 0x09, 0x12, 0x24, 0x54, 0x04, 0x55, 0x80, 0x18, 0x92, 0xaa, 0x8a, 0x20, 0x4a, 0xa0, 0x00, 0x01, 0x08, 0x12, 0x20,
  0x28, 0xa0, 0x08, 0x00, 0x40, 0x28, 0xa0, 0x0a, 0xa5, 0x50, 0x01, 0x08, 0xa4, 0x22, 0x00, 0x01, 0x80, 0x00, 0x22, 0x00,
  0x80, 0x80, 0x00, 0xa0, 0x50, 0xa8, 0x94, 0x2a, 0x11, 0x42, 0x05, 0x20, 0x20, 0x80, 0x50, 0x80, 0x00, 0x81, 0x8a, 0x92,
  0x02, 0x2a, 0x28, 0x04, 0x50, 0x01, 0x40, 0x14, 0x00, 0x00, 0x05, 0x09, 0x00, 0x0a, 0x00, 0x15, 0x28, 0x2a, 0x05, 0x48,
  0x84, 0x60, 0x50, 0x04, 0x00, 0x05, 0x02, 0x20, 0x14, 0x00, 0x0a, 0x11, 0xa2, 0xaa, 0x00, 0x00, 0x11, 0x80, 0x00, 0x00,
  0x80, 0x41, 0x2a, 0x08, 0x0a, 0xaa, 0x62, 0x45, 0x0a, 0x94, 0x42, 0x8a, 0x28, 0xa2, 0x12, 0x00, 0x10, 0x10, 0x41, 0x15,
  0xa0, 0xaa, 0x0a, 0x00, 0x01, 0x22, 0x50, 0x90, 0x42, 0x41, 0x14, 0x04, 0x14, 0x00, 0x54, 0x41, 0xa9, 0x02, 0xa0, 0x0a,
  0xa8, 0x52, 0x05, 0xa8, 0x14, 0x40, 0x11, 0xa8, 0x8a, 0x08, 0x44, 0x05, 0x02, 0x62, 0x08, 0x0a, 0x02, 0x08, 0x50, 0x94,
  0x80, 0x80, 0x46, 0x41, 0x00, 0xa4, 0x2a, 0x54, 0x81, 0x11, 0x40, 0x25, 0x11, 0x00, 0x2a, 0x0a, 0x11, 0x40, 0x21, 0x4a,
  0x50, 0x00, 0x14, 0x15, 0x00, 0x5a, 0x84, 0xaa, 0x2a, 0x55, 0x95, 0x10, 0x28, 0x55, 0x15, 0x28, 0x82, 0x2a, 0x42, 0x51,
  0x50, 0xa5, 0x4a, 0x05, 0x80, 0x04, 0x28, 0x05, 0x00, 0x56, 0xa1, 0x52, 0x21, 0x2a, 0xa0, 0x40, 0x21, 0x56, 0xa1, 0x80,
  0xa0, 0x06, 0x44, 0x14, 0x08, 0x21, 0x10, 0x00, 0x54, 0x54, 0x91, 0x20, 0x06, 0x20, 0x12, 0x05, 0x00, 0x15, 0x85, 0x0a,
  0x00, 0xa8, 0x40, 0x05, 0x08, 0x54, 0x00, 0x20, 0x05, 0x56, 0x01, 0x20, 0x80, 0x02, 0x00, 0x45, 0x54, 0x88, 0x09, 0x84,
  0x84, 0x08, 0x01, 0x20, 0x2a, 0x81, 0x90, 0x08, 0x00, 0x2a, 0x04, 0x00, 0xa2, 0x0a, 0xa8, 0x05, 0x05, 0x00, 0x18, 0xaa,
  0x12, 0xa1, 0x42, 0x05, 0x58, 0x05, 0x42, 0x05, 0x2a, 0x85, 0xa0, 0x00, 0x02, 0x58, 0x55, 0xa0, 0x11, 0x02, 0x40, 0x81,
  0x22, 0x55, 0x69, 0x15, 0x15, 0x08, 0x28, 0x90, 0x42, 0x50, 0x40, 0x80, 0x00, 0x40, 0x84, 0x60, 0x91, 0xaa, 0x0a, 0x00,
  0x02, 0x80, 0x08, 0x40, 0x28, 0x00, 0x00, 0x20, 0x02, 0x00, 0x40, 0xa8, 0x80, 0xa8, 0x41, 0x00, 0x2a, 0x15, 0xa8, 0x2a,
  0x01, 0x50, 0x54, 0x01, 0x89, 0x8a, 0x08, 0x08, 0x04, 0x54, 0x14, 0x00, 0x00, 0x60, 0x82, 0xa0, 0x16, 0x40, 0x55, 0x68,
  0x20, 0x15, 0x52, 0xa0, 0x02, 0xa0, 0x44, 0x50, 0xa5, 0x52, 0x05, 0x68, 0x81, 0x52, 0xa5, 0x01, 0xaa, 0x40, 0xaa, 0x16,
  0x40, 0x24, 0x50, 0x81, 0x54, 0x25, 0x00, 0x80, 0x06, 0x00, 0x00, 0x08, 0x10, 0x11, 0x2a, 0x01, 0xa0, 0x56, 0x40, 0x10,
  0x10, 0x00, 0x50, 0x80, 0x56, 0x08, 0x90, 0x85, 0x22, 0x5a, 0x81, 0x46, 0x20, 0x55, 0x80, 0x52, 0x40, 0x80, 0x02, 0x00,
  0x10, 0x00, 0x4a, 0x00, 0x20, 0x00, 0x2a, 0x11, 0x00, 0x8a, 0x11, 0x00, 0x14, 0x28, 0x81, 0x00, 0x0a, 0x15, 0x20, 0xa9,
  0x04, 0x04, 0x40, 0x00, 0x40, 0x80, 0x55, 0x04, 0x10, 0x41, 0xa1, 0x82, 0x14, 0x08, 0xa5, 0x44, 0x80, 0x14, 0x88, 0x92,
  0x80, 0x2a, 0x4a, 0x85, 0xa0, 0x94, 0x42, 0xa0, 0x02, 0x00, 0x21, 0x10, 0x00, 0x01, 0x85, 0x08, 0xa0, 0x08, 0x00, 0x04,
  0x50, 0x00, 0xa2, 0x12, 0x42, 0x01, 0x10, 0x04, 0x81, 0x54, 0x01, 0x00, 0x84, 0x42, 0x60, 0x84, 0x42, 0x60, 0x84, 0x02,
  0x56, 0x81, 0x52, 0x01, 0x52, 0x08, 0x02, 0x28, 0xa0, 0x95, 0x85, 0x28, 0x28, 0x12, 0x58, 0x00, 0xa0, 0x0a, 0x40, 0x22,
  0x82, 0x20, 0x00, 0x54, 0x08, 0x15, 0x80, 0x20, 0x00, 0x08, 0x00, 0x8a, 0x42, 0x51, 0x02, 0x10, 0x08, 0x15, 0x00, 0x04,
  0x40, 0x00, 0x45, 0x85, 0x08, 0x80, 0x10, 0x00, 0x04, 0x25, 0x15, 0x01, 0x41, 0x8a, 0x08, 0x54, 0x01, 0x14, 0x00, 0x68,
  0x85, 0x22, 0xa0, 0x2a, 0x21, 0x04, 0x21, 0x58, 0x01, 0x10, 0xaa, 0x22, 0x12, 0x09, 0x04, 0x1a, 0x80, 0x16, 0x90, 0xa5,
  0x82, 0x05, 0x5a, 0x51, 0x10, 0x40, 0x80, 0x0a, 0x54, 0x80, 0x42, 0x08, 0x52, 0xa5, 0x5a, 0xa0, 0xa8, 0x00, 0x54, 0x54,
  0xa9, 0x40, 0x04, 0x2a, 0xa1, 0x22, 0x80, 0x00, 0x80, 0x94, 0xa9, 0x11, 0x12, 0x42, 0xa5, 0x54, 0x00, 0xa0, 0x52, 0x41,
  0x00, 0xaa, 0x52, 0x14, 0x80, 0x00, 0x05, 0x19, 0x2a, 0xa2, 0x2a, 0x02, 0x10, 0x45, 0x81, 0xa0, 0xaa, 0x42, 0x15, 0x04,
  0x56, 0x01, 0xa0, 0x00, 0x42, 0x54, 0x09, 0x14, 0x20, 0xa8, 0x48, 0x40, 0x58, 0x55, 0x55, 0x05, 0x20, 0x80, 0x92, 0x84,
  0x85, 0x50, 0x55, 0x51, 0x21, 0x14, 0x02, 0x20, 0x50, 0x40, 0x14, 0x40, 0x41, 0x01, 0xa2, 0x82, 0x01, 0x02, 0x10, 0x80,
  0x82, 0xaa, 0x22, 0x2a, 0x20, 0x20, 0x55, 0x45, 0x15, 0x20, 0x22, 0x00, 0x05, 0x20, 0x55, 0x01, 0x0a, 0x15, 0x4a, 0x51,
  0x04, 0x11, 0x84, 0x12, 0x51, 0x01, 0x01, 0x14, 0x08, 0x6a, 0x11, 0x00, 0x54, 0x08, 0x01, 0x8a, 0x8a, 0xa8, 0x02, 0x01,
  0x40, 0x05, 0x15, 0x08, 0x44, 0x48, 0x01, 0x48, 0x05, 0x44, 0xaa, 0xaa, 0x00, 0x11, 0x10, 0xa0, 0x08, 0x01, 0x82, 0x14,
  0x40, 0x01, 0x81, 0x2a, 0xa0, 0x00, 0xa1, 0x50, 0x40, 0x15, 0x01, 0x41, 0x88, 0x15, 0x82, 0x56, 0xa8, 0x84, 0x0a, 0x6a,
  0x95, 0x14, 0x81, 0x00, 0x04, 0x00, 0x22, 0x41, 0x95, 0x0a, 0x02, 0x2a, 0x20, 0x02, 0x54, 0x15, 0xa8, 0x68, 0x28, 0x10,
  0x42, 0x00, 0x20, 0x94, 0x08, 0x00, 0x11, 0x42, 0x41, 0x00, 0x00, 0xaa, 0x02, 0x80, 0x00, 0xaa, 0x54, 0x45, 0x05, 0x08,
  0x28, 0x04, 0x2a, 0x11, 0x20, 0x42, 0x11, 0x8a, 0xa2, 0x54, 0x15, 0x28, 0x42, 0xa0, 0x02, 0x02, 0x40, 0x01, 0x20, 0x0a,
  0x21, 0x12, 0x44, 0x12, 0x25, 0x22, 0x21, 0x20, 0x0a, 0x00, 0x00, 0xa5, 0x80, 0x06, 0x0a, 0x00, 0xaa, 0x05, 0x20, 0x02,
  0x28, 0x42, 0x55, 0x01, 0xaa, 0x00, 0x00, 0x44, 0x60, 0x01, 0x0a, 0x42, 0x05, 0x54, 0xa0, 0x40, 0x98, 0x40, 0x40, 0x68,
  0x55, 0x01, 0x05, 0xa8, 0x50, 0xaa, 0x26, 0x0a, 0x00, 0x55, 0x15, 0x10, 0x28, 0x02, 0x60, 0x00, 0x81, 0xaa, 0xa4, 0x40,
  0x11, 0x55, 0x45, 0x55, 0x80, 0x80, 0xaa, 0x2a, 0x01, 0x10, 0x00, 0x00, 0x40, 0x88, 0x40, 0x55, 0x45, 0x20, 0x40, 0x05,
  0x04, 0x02, 0x91, 0x10, 0xa1, 0x0a, 0x00, 0x54, 0x15, 0x94, 0x55, 0x40, 0x04, 0x14, 0x81, 0x88, 0x22, 0x00, 0x04, 0x02,
  0x01, 0x82, 0x42, 0x05, 0x05, 0x10, 0x28, 0x22, 0x82, 0x68, 0x05, 0x84, 0x00, 0x0a, 0xa0, 0x0a, 0x20, 0x88, 0x00, 0x0a,
  0x42, 0x12, 0x09, 0x50, 0x21, 0xa0, 0x2a, 0x12, 0xa8, 0xa0, 0x02, 0x2a, 0xa4, 0x1a, 0x40, 0xaa, 0x50, 0x50, 0xa8, 0xa9,
  0xa9, 0x80, 0x88, 0x00, 0xa0, 0x6a, 0x08, 0x42, 0x01, 0x50, 0x25, 0xa2, 0x0a, 0x8a, 0x86, 0x88, 0x00, 0x28, 0x81, 0x28,
  0x01, 0x8a, 0xa8, 0x00, 0x16, 0x55, 0x04, 0x20, 0x40, 0x81, 0x8a, 0x08, 0x20, 0x08, 0x0a, 0x04, 0x00, 0x00, 0x40, 0x81,
  0x02, 0x42, 0x05, 0xa8, 0x16, 0x08, 0x14, 0x20, 0x55, 0x69, 0x56, 0x84, 0xa2, 0x05, 0x20, 0x2a, 0x16, 0x80, 0xa0, 0x40,
  0x8a, 0x08, 0x04, 0x08, 0x00, 0x40, 0x00, 0x80, 0xa2, 0x50, 0x05, 0x10, 0x08, 0xa8, 0xa8, 0x50, 0x01, 0x10, 0x04, 0x40,
  0x05, 0xa4, 0x12, 0x09, 0x05, 0x54, 0x08, 0x05, 0xa4, 0x1a, 0x81, 0x04, 0x08, 0x50, 0xa1, 0x16, 0x20, 0x00, 0x04, 0x96,
  0x15, 0x50, 0x20, 0x00, 0x89, 0x00, 0x06, 0x11, 0x01, 0x4a, 0x88, 0x50, 0x55, 0x00, 0x04, 0x14, 0x0a, 0x05, 0x62, 0x40,
  0xa8, 0x05, 0x50, 0x01, 0x10, 0x25, 0x4a, 0xa0, 0x50, 0x40, 0x05, 0x10, 0x04, 0x0a, 0x00, 0xaa, 0x00, 0x81, 0x00, 0x15,
  0x11, 0x10, 0xa0, 0x84, 0x52, 0xa4, 0xa2, 0x10, 0x82, 0x6a, 0x04, 0x1a, 0x40, 0x21, 0x05, 0x00, 0x4a, 0x00, 0x81, 0x58,
  0x21, 0x51, 0x81, 0x20, 0xa1, 0x20, 0x48, 0x40, 0x15, 0x95, 0x00, 0x54, 0xaa, 0x02, 0x04, 0x14, 0x54, 0x20, 0x00, 0x15,
  0x20, 0x6a, 0x15, 0x11, 0x00, 0x15, 0x28, 0x00, 0x40, 0x60, 0x85, 0x40, 0x05, 0x21, 0x6a, 0x05, 0xaa, 0x02, 0x05, 0x61,
  0x06, 0xa4, 0x08, 0xa0, 0x2a, 0x01, 0x22, 0x90, 0x88, 0x00, 0x01, 0x52, 0x55, 0x50, 0x80, 0x2a, 0x0a, 0x01, 0x00, 0x50,
  0x15, 0x82, 0xaa, 0x2a, 0x00, 0x42, 0x55, 0x81, 0x00, 0x05, 0x44, 0x01, 0x40, 0x45, 0xa8, 0xaa, 0x00, 0x01, 0x95, 0xaa,
  0x82, 0x6a, 0x40, 0x00, 0x44, 0xa0, 0x2a, 0x40, 0x15, 0x94, 0x52, 0xa8, 0x54, 0xa8, 0x02, 0x0a, 0x54, 0x55, 0x50, 0x55,
  0x01, 0x10, 0x21, 0x04, 0xa0, 0x42, 0x00, 0x00, 0x18, 0x28, 0x12, 0x00, 0x54, 0x12, 0x00, 0x20, 0x54, 0x45, 0x08, 0xa0,
  0x1a, 0xa0, 0x9a, 0x48, 0x11, 0xa2, 0x0a, 0x58, 0x15, 0x81, 0xaa, 0xaa, 0x14, 0x50, 0xa0, 0x20, 0x28, 0xa8, 0xa2, 0x60,
  0x14, 0x58, 0x02, 0x59, 0x15, 0x81, 0x02, 0x51, 0x01, 0x45, 0x21, 0x01, 0x88, 0x02, 0xa8, 0x00, 0x08, 0x00, 0x45, 0x01,
  0x80, 0x21, 0x15, 0x00, 0x05, 0x11, 0x60, 0x20, 0x00, 0x82, 0x02, 0x10, 0x00, 0xa2, 0x12, 0x54, 0xa0, 0x20, 0x54, 0x01,
  0x50, 0xa8, 0x0a, 0x28, 0x22, 0x00, 0x85, 0x00, 0x91, 0x90, 0x41, 0x55, 0x44, 0x81, 0x0a, 0x4a, 0x14, 0x02, 0x55, 0x28,
  0x84, 0x8a, 0x50, 0x45, 0x95, 0x54, 0x20, 0x28, 0x08, 0x28, 0xa0, 0x04, 0x41, 0x48, 0x05, 0x52, 0x00, 0x04, 0x4a, 0x84,
  0x4a, 0x04, 0x54, 0x05, 0x02, 0x00, 0xa0, 0x00, 0x04, 0x00, 0x95, 0x2a, 0x54, 0x02, 0x44, 0x05, 0x05, 0x40, 0xa8, 0x96,
  0x02, 0x48, 0xa1, 0x22, 0x25, 0x45, 0x04, 0xaa, 0x00, 0x44, 0x01, 0x02, 0x56, 0xa9, 0x42, 0x44, 0x00, 0x40, 0x50, 0x00,
  0x20, 0x48, 0x41, 0x40, 0x02, 0x02, 0x41, 0x11, 0x00, 0x2a, 0x00, 0x0a, 0x2a, 0x46, 0x41, 0xa0, 0x28, 0x05, 0x02, 0x12,
  0x22, 0x00, 0x01, 0x1a, 0x48, 0x15, 0x84, 0x28, 0x88, 0x92, 0x20, 0x82, 0x08, 0xaa, 0x08, 0x2a, 0x44, 0x01, 0x00, 0x29,
  0x62, 0x00, 0x00, 0xa2, 0x40, 0x01, 0x16, 0x00, 0x21, 0x82, 0x0a, 0x40, 0x14, 0x44, 0x00, 0x10, 0x51, 0x48, 0x80, 0x02,
  0x00, 0x28, 0x48, 0x15, 0x08, 0x04, 0x15, 0x80, 0xaa, 0x40, 0x15, 0x10, 0x45, 0xa4, 0xa0, 0x6a, 0x21, 0x28, 0x46, 0x69,
  0x05, 0x10, 0x91, 0x0a, 0x54, 0x20, 0x00, 0xaa, 0x50, 0x10, 0x10, 0x02, 0x04, 0xa0, 0x20, 0x02, 0x21, 0x48, 0xa1, 0x44,
  0x20, 0x00, 0x2a, 0x00, 0x20, 0x00, 0x00, 0x0a, 0x20, 0x80, 0x0a, 0x46, 0x80, 0x42, 0x20, 0x08, 0x01, 0x00, 0x00, 0xaa,
  0x2a, 0x52, 0x45, 0x21, 0x00, 0x2a, 0x52, 0x55, 0x41, 0x60, 0x81, 0x50, 0xa8, 0x08, 0xa2, 0xa2, 0x04, 0x42, 0x11, 0x08,
  0x08, 0x41, 0x80, 0xaa, 0x50, 0x55, 0x11, 0x00, 0x20, 0x80, 0x82, 0xaa, 0x50, 0x42, 0x82, 0x8a, 0xa2, 0x14, 0xa0, 0x12,
  0x10, 0x44, 0x01, 0x08, 0x02, 0x45, 0x04, 0xaa, 0x80, 0x20, 0x88, 0x54, 0x51, 0x11, 0xaa, 0x11, 0x15, 0x02, 0x26, 0x6a,
  0x52, 0x2a, 0x56, 0x4a, 0x05, 0x52, 0x81, 0x0a, 0x00, 0x05, 0x00, 0x12, 0x02, 0x00, 0x12, 0x10, 0x85, 0x10, 0x0a, 0x04,
  0x00, 0x10, 0x02, 0x82, 0x20, 0x28, 0x44, 0x10, 0x10, 0x21, 0x81, 0x88, 0x42, 0x00, 0x00, 0x42, 0x00, 0x00, 0x14, 0x2a,
  0x20, 0x28, 0x14, 0x54, 0x21, 0x80, 0xa0, 0x01, 0x91, 0x94, 0xa0, 0x80, 0x00, 0x02, 0x22, 0x14, 0x11, 0x41, 0x01, 0x02,
  0x45, 0x81, 0x04, 0x1a, 0x00, 0x95, 0x8a, 0x20, 0x90, 0x02, 0x54, 0x21, 0x04, 0x2a, 0x80, 0xaa, 0x12, 0x00, 0x02, 0x88,
  0x44, 0x90, 0xa8, 0x16, 0x00, 0x12, 0x0a, 0x02, 0x22, 0x88, 0x22, 0x22, 0xaa, 0x84, 0x00, 0x50, 0x85, 0xa8, 0x00, 0x5a,
  0x02, 0x14, 0x02, 0x01, 0x80, 0x02, 0x85, 0x58, 0x40, 0xa8, 0x55, 0x00, 0x82, 0x08, 0x14, 0x21, 0x20, 0x06, 0x28, 0x45,
  0x60, 0x15, 0x8a, 0x2a, 0x55, 0x14, 0x90, 0xaa, 0x2a, 0x11, 0x68, 0x44, 0x51, 0x08, 0x08, 0x51, 0x05, 0x02, 0xa0, 0x46,
  0xa0, 0x01, 0x80, 0x8a, 0x0a, 0x85, 0x04, 0x01, 0x8a, 0xa5, 0x82, 0x00, 0x14, 0x1a, 0x40, 0x85, 0x52, 0x04, 0xa8, 0x02,
  0x00, 0x01, 0x80, 0x0a, 0x42, 0xa1, 0x00, 0x11, 0x41, 0x44, 0x61, 0x45, 0x88, 0x50, 0x00, 0x0a, 0xa2, 0xa2, 0x54, 0x45,
  0x11, 0x00, 0xa8, 0x02, 0x04, 0x48, 0x40, 0x45, 0x44, 0x08, 0x0a, 0x00, 0x20, 0x54, 0x55, 0x21, 0x0a, 0x45, 0x55, 0x91,
  0x01, 0x84, 0x2a, 0xa0, 0x2a, 0x44, 0x81, 0x04, 0x11, 0x51, 0x55, 0x08, 0x51, 0x80, 0x2a, 0x8a, 0x8a, 0x28, 0x4a, 0x80,
  0x02, 0x28, 0x11, 0x20, 0x44, 0x80, 0x2a, 0x00, 0x00, 0x40, 0x41, 0x04, 0x2a, 0x28, 0x88, 0xa8, 0x20, 0x02, 0x01, 0x54,
  0x55, 0x51, 0x84, 0x08, 0xa0, 0x06, 0x06, 0x08, 0x06, 0x84, 0x56, 0xa9, 0x4a, 0x45, 0x00, 0x02, 0x88, 0x46, 0x00, 0x10,
  0x05, 0x10, 0x08, 0xa8, 0x2a, 0x48, 0x45, 0x05, 0x82, 0x52, 0x28, 0x10, 0x54, 0x14, 0x80, 0x22, 0x88, 0x84, 0x81, 0x08,
  0x81, 0x01, 0x50, 0x85, 0x40, 0x00, 0x48, 0x04, 0x00, 0x10, 0x00, 0x04, 0x8a, 0x04, 0xa1, 0x12, 0x50, 0x21, 0x54, 0x60,
  0x10, 0x42, 0x04, 0xa8, 0x0a, 0xa0, 0x40, 0xa8, 0x40, 0x01, 0x28, 0x50, 0x50, 0x08, 0x28, 0x61, 0x80, 0x02, 0x08, 0x00,
  0x00, 0x10, 0x14, 0x0a, 0x2a, 0xa2, 0x68, 0x42, 0x04, 0x00, 0x05, 0x42, 0x80, 0x2a, 0x28, 0x14, 0x81, 0x80, 0x42, 0x01,
  0x41, 0x01, 0x22, 0x01, 0x00, 0x00, 0x00, 0x50, 0x00, 0x6a, 0x94, 0x2a, 0x15, 0x82, 0x06, 0x85, 0x56, 0x05, 0x20, 0x28,
  0x2a, 0x12, 0x09, 0x5a, 0x00, 0x01, 0xa1, 0x08, 0x80, 0x08, 0x48, 0x05, 0x1a, 0x04, 0x2a, 0x20, 0x08, 0x15, 0x82, 0x22,
  0x10, 0xa0, 0x40, 0xa1, 0x56, 0x88, 0x16, 0x80, 0x2a, 0x49, 0x51, 0x00, 0x00, 0x14, 0x28, 0x05, 0x00, 0x80, 0xa4, 0x6a,
  0x22, 0x00, 0x11, 0x20, 0x54, 0x21, 0x01, 0x00, 0x15, 0x00, 0x88, 0x02, 0x2a, 0x82, 0x00, 0x10, 0xa9, 0x02, 0x00, 0xaa,
  0x00, 0x00, 0x2a, 0x81, 0x52, 0x01, 0x88, 0x28, 0x22, 0x22, 0x00, 0xa2, 0x10, 0xa8, 0x42, 0x05, 0x64, 0x20, 0x08, 0x02,
  0x00, 0x68, 0x05, 0x28, 0x28, 0x22, 0x00, 0x0a, 0x24, 0x60, 0x11, 0x10, 0x54, 0x01, 0x15, 0x21, 0x90, 0x40, 0x02, 0x80,
  0x02, 0x04, 0x00, 0x20, 0xa0, 0x02, 0x41, 0x01, 0x40, 0x00, 0x01, 0x64, 0x81, 0x45, 0x20, 0x00, 0x01, 0x0a, 0x08, 0x02,
  0x2a, 0x05, 0x01, 0x8a, 0x02, 0x05, 0x58, 0x09, 0x56, 0x94, 0x44, 0x80, 0x0a, 0x28, 0x02, 0x50, 0x91, 0x08, 0x80, 0x92,
  0x45, 0x00, 0x15, 0x8a, 0x10, 0x45, 0x15, 0xa5, 0x4a, 0x00, 0x20, 0x00, 0x14, 0x80, 0x56, 0x15, 0x15, 0x28, 0x2a, 0xa2,
  0x50, 0x55, 0x85, 0xaa, 0x20, 0x00, 0xaa, 0xaa, 0xa8, 0x50, 0x42, 0x05, 0x10, 0xa1, 0xaa, 0x4a, 0x00, 0xa0, 0x42, 0x40,
  0x05, 0xa8, 0x22, 0xa0, 0x22, 0x4a, 0x89, 0xa8, 0xa2, 0x56, 0x4a, 0x81, 0x01, 0x09, 0x00, 0x2a, 0x00, 0x00, 0x55, 0x00,
  0x22, 0x00, 0x10, 0x00, 0x90, 0x14, 0xa1, 0x82, 0x08, 0x05, 0x18, 0x45, 0x54, 0x80, 0x02, 0x00, 0x82, 0x90, 0x54, 0x44,
  0x40, 0x54, 0x28, 0x85, 0x2a, 0x00, 0x20, 0x84, 0x50, 0x40, 0x15, 0xa0, 0x5a, 0x80, 0x00, 0x22, 0x54, 0x55, 0x88, 0x92,
  0x52, 0x82, 0xaa, 0x14, 0x00, 0x2a, 0x04, 0x86, 0x40, 0x24, 0x00, 0x55, 0x40, 0x88, 0x56, 0x00, 0xa1, 0x0a, 0x00, 0x01,
  0x01, 0x42, 0x01, 0x41, 0x54, 0x15, 0x48, 0x05, 0x88, 0x0a, 0x41, 0x05, 0x15, 0xaa, 0x52, 0x55, 0x20, 0x10, 0x05, 0x52,
  0x41, 0x15, 0x02, 0x40, 0x20, 0x0a, 0x08, 0x25, 0xa1, 0x52, 0x01, 0x05, 0x10, 0x88, 0x12, 0x15, 0xaa, 0x40, 0x88, 0x56,
  0x55, 0xa0, 0x02, 0x04, 0x21, 0x00, 0x08, 0x80, 0xa2, 0x40, 0x50, 0x00, 0x00, 0x10, 0x05, 0x90, 0x14, 0x80, 0x05, 0x22,
  0x40, 0x01, 0x29, 0x00, 0x14, 0x58, 0x20, 0x11, 0x42, 0x50, 0x11, 0x48, 0x10, 0x02, 0x84, 0x0a, 0x14, 0x01, 0x8a, 0x92,
  0xa1, 0x10, 0x44, 0x01, 0x10, 0x00, 0x88, 0x44, 0x55, 0xa8, 0x80, 0x55, 0x48, 0x15, 0x01, 0x82, 0x0a, 0x40, 0x11, 0x40,
  0x55, 0x00, 0x80, 0x00, 0x04, 0x54, 0xa1, 0x42, 0xa2, 0x02, 0x55, 0x01, 0x00, 0x95, 0x08, 0xa1, 0x48, 0x08, 0x08, 0x2a,
  0x14, 0xaa, 0x00, 0x51, 0x15, 0xa0, 0x01, 0x50, 0x01, 0x48, 0x55, 0x62, 0x88, 0x00, 0x00, 0x4a, 0x49, 0x50, 0x08, 0x01,
  0x02, 0x20, 0x20, 0x80, 0x04, 0xaa, 0x02, 0xa2, 0x54, 0x0a, 0x81, 0x02, 0x15, 0x4a, 0x82, 0x02, 0xa8, 0x12, 0x60, 0x15,
  0x40, 0x01, 0x00, 0xaa, 0x00, 0x04, 0x0a, 0x29, 0xa4, 0x0a, 0x80, 0x54, 0x85, 0x5a, 0x60, 0x15, 0x45, 0x1a, 0x29, 0xa0,
  0xaa, 0x88, 0x98, 0xa0, 0x04, 0x05, 0x05, 0x00, 0x08, 0xa0, 0x08, 0x0a, 0x12, 0x00, 0x54, 0x55, 0xa5, 0x0a, 0x0a, 0x01,
  0x01, 0x00, 0x51, 0x51, 0x40, 0x04, 0xa8, 0xaa, 0x2a, 0x01, 0x10, 0x60, 0x40, 0xa8, 0x42, 0x00, 0x40, 0x40, 0x22, 0x18,
  0xa8, 0xa0, 0xa8, 0x2a, 0x41, 0x00, 0x02, 0x42, 0x85, 0x9a, 0xa1, 0x14, 0x10, 0xaa, 0x48, 0x54, 0x00, 0xa8, 0x05, 0x21,
  0x2a, 0x01, 0x82, 0x28, 0x00, 0x24, 0x4a, 0x05, 0x00, 0x10, 0x20, 0x20, 0xaa, 0xa8, 0x94, 0x08, 0xa0, 0x42, 0x01, 0x00,
  0x81, 0x00, 0x2a, 0x85, 0xa0, 0x18, 0x90, 0x10, 0x00, 0xa8, 0x52, 0x0a, 0x56, 0x05, 0x02, 0x4a, 0x89, 0x4a, 0x05, 0x6a,
  0x02, 0x00, 0x8a, 0x10, 0x00, 0x80, 0x01, 0xa8, 0x00, 0x00, 0x01, 0x00, 0x00, 0x2a, 0x02, 0x42, 0x10, 0x80, 0x42, 0xa0,
  0x89, 0x02, 0x10, 0x15, 0x05, 0xa8, 0x00, 0x02, 0x00, 0x28, 0x04, 0x02, 0x05, 0x40, 0x21, 0xa1, 0x51, 0xa0, 0x11, 0x28,
  0x10, 0xa0, 0x60, 0x80, 0x11, 0x40, 0x20, 0x1a, 0x80, 0x52, 0x41, 0x01, 0x90, 0x10, 0x54, 0x54, 0x01, 0x2a, 0x05, 0x18,
  0x40, 0x01, 0x45, 0x81, 0x12, 0x01, 0x0a, 0x10, 0x54, 0x81, 0x28, 0xa0, 0xa0, 0x02, 0x11, 0x42, 0x18, 0x81, 0x8a, 0x02,
  0x6a, 0x01, 0x42, 0x05, 0x08, 0x82, 0x08, 0x10, 0x28, 0x15, 0x44, 0x08, 0x21, 0x14, 0x51, 0x51, 0x95, 0x09, 0x88, 0xaa,
  0xa8, 0x05, 0x55, 0x80, 0x14, 0x08, 0x01, 0x00, 0x50, 0x09, 0x8a, 0x46, 0x20, 0x54, 0x00, 0x20, 0x00, 0x46, 0x55, 0x58,
  0x00, 0x40, 0x20, 0x01, 0x55, 0x28, 0x28, 0x52, 0x15, 0x14, 0x0a, 0x21, 0xa0, 0x04, 0x00, 0x42, 0x55, 0x01, 0x4a, 0x05,
  0x82, 0x0a, 0x09, 0x15, 0x02, 0x12, 0x15, 0x42, 0x40, 0x51, 0x81, 0x14, 0x0a, 0x00, 0x04, 0x00, 0x08, 0xa9, 0x15, 0x0a,
  0x01, 0x48, 0x10, 0x00, 0x24, 0x90, 0x0a, 0x00, 0x45, 0x00, 0xa0, 0x02, 0x40, 0x84, 0x08, 0x14, 0x0a, 0x15, 0xa8, 0x15,
  0x04, 0x4a, 0x11, 0xa8, 0x42, 0x85, 0x40, 0x02, 0x2a, 0x24, 0x10, 0x40, 0x25, 0x86, 0x0a, 0x45, 0x01, 0x80, 0x20, 0x68,
  0x22, 0x55, 0x20, 0x01, 0x80, 0x20, 0xa8, 0x00, 0xa2, 0xa0, 0x40, 0x15, 0x14, 0x0a, 0x00, 0x22, 0x02, 0x18, 0x51, 0x41,
  0x88, 0x0a, 0x04, 0x0a, 0x2a, 0x41, 0x55, 0xa8, 0x28, 0x41, 0x05, 0x54, 0xa8, 0x02, 0x82, 0x02, 0x28, 0x00, 0x01, 0xa8,
  0x88, 0xa8, 0x05, 0x02, 0x00, 0x55, 0x29, 0xa0, 0x42, 0x68, 0xa1, 0x48, 0x05, 0x00, 0x50, 0x01, 0x08, 0x08, 0xa4, 0x02,
  0x50, 0x50, 0xa8, 0xa8, 0x04, 0x10, 0x14, 0x10, 0x20, 0x10, 0x42, 0x01, 0x28, 0x80, 0xa8, 0x4a, 0x44, 0x14, 0x22, 0xa0,
  0x00, 0x20, 0x08, 0x05, 0x08, 0x54, 0xa5, 0x00, 0x10, 0x40, 0x40, 0xa1, 0x0a, 0x41, 0x25, 0x82, 0xa4, 0x4a, 0x11, 0x98,
  0x55, 0x81, 0xaa, 0x00, 0x00, 0x10, 0x01, 0x00, 0xa0, 0x00, 0x8a, 0x00, 0x04, 0x11, 0x04, 0xa0, 0x40, 0x2a, 0x2a, 0x14,
  0x08, 0x00, 0x04, 0xa9, 0x50, 0x10, 0x44, 0x01, 0x54, 0x80, 0x20, 0x28, 0x50, 0x01, 0x50, 0x61, 0x80, 0x0a, 0x41, 0x00,
  0x88, 0x50, 0x00, 0x10, 0x42, 0x80, 0x02, 0x95, 0x10, 0x90, 0x14, 0x02, 0x41, 0x00, 0x00, 0xa2, 0x82, 0x02, 0x85, 0x02,
  0x44, 0x51, 0xa1, 0x42, 0x81, 0x50, 0x00, 0x10, 0x24, 0x24, 0x10, 0x45, 0x02, 0x81, 0x02, 0x80, 0x10, 0x45, 0x2a, 0x00,
  0x55, 0x50, 0x11, 0x08, 0xa0, 0x00, 0x10, 0x20, 0x85, 0xa0, 0xa8, 0x60, 0x15, 0x61, 0xa5, 0x02, 0x20, 0x50, 0x55, 0xa5,
  0x22, 0x82, 0x2a, 0x00, 0x89, 0xaa, 0x82, 0xa0, 0x28, 0x08, 0x01, 0x5a, 0x09, 0x04, 0x80, 0x2a, 0x02, 0x60, 0x80, 0x10,
  0x04, 0x22, 0x00, 0x00, 0x04, 0x48, 0x08, 0x00, 0x05, 0x54, 0x00, 0x10, 0xa8, 0x56, 0xa8, 0x42, 0x10, 0x4a, 0x54, 0x55,
  0x05, 0x28, 0x08, 0x05, 0x08, 0x88, 0x22, 0x6a, 0x55, 0x94, 0x45, 0x01, 0x56, 0x80, 0x4a, 0x15, 0x40, 0x05, 0x4a, 0x55,
  0x80, 0xa0, 0x02, 0x15, 0xa2, 0x20, 0xa0, 0x52, 0x20, 0x04, 0x54, 0x45, 0x14, 0x28, 0x8a, 0x00, 0x40, 0xa1, 0x42, 0x20,
  0x50, 0x51, 0x85, 0x58, 0x04, 0x50, 0x14, 0x12, 0xaa, 0x42, 0x44, 0x55, 0x80, 0x04, 0x01, 0x88, 0x10, 0x01, 0x28, 0x48,
  0x01, 0x40, 0xa8, 0x40, 0x84, 0x8a, 0x2a, 0x00, 0x85, 0x42, 0x55, 0x01, 0x22, 0x00, 0x10, 0x02, 0x00, 0x48, 0x00, 0x2a,
  0x05, 0x28, 0x42, 0x54, 0x40, 0x50, 0x85, 0x54, 0x28, 0x00, 0x28, 0x06, 0x01, 0xa2, 0xa0, 0x54, 0x45, 0x55, 0x09, 0x15,
  0x04, 0x45, 0xa0, 0x2a, 0x20, 0xa0, 0x01, 0x55, 0xa0, 0x6a, 0x01, 0x88, 0xa8, 0x80, 0xa0, 0x54, 0x44, 0x05, 0x14, 0x01,
  0x82, 0x02, 0x05, 0x85, 0x40, 0x00, 0x4a, 0x45, 0x80, 0x0a, 0x02, 0x00, 0x00, 0x8a, 0x40, 0x00, 0x05, 0x00, 0x05, 0x88,
  0xa8, 0x2a, 0x42, 0x05, 0x00, 0x00, 0x0a, 0x20, 0x48, 0x41, 0x10, 0x80, 0x01, 0x61, 0x01, 0x00, 0x02, 0x24, 0xa0, 0x68,
  0x81, 0x00, 0x15, 0x04, 0x40, 0xa5, 0x02, 0x80, 0x1a, 0x01, 0x60, 0x10, 0x00, 0x00, 0x40, 0x11, 0x50, 0x45, 0x45, 0x00,
  0x8a, 0x00, 0x45, 0x28, 0x00, 0x80, 0x28, 0x2a, 0x5a, 0x04, 0x10, 0x14, 0x24, 0x11, 0x45, 0x05, 0x08, 0x88, 0x40, 0x00,
  0x20, 0x21, 0x02, 0x40, 0x54, 0x11, 0x01, 0x20, 0x00, 0x81, 0x81, 0x50, 0x45, 0x40, 0x45, 0xa1, 0x82, 0x40, 0x40, 0xa2,
  0x54, 0x04, 0x5a, 0x00, 0x88, 0x85, 0x21, 0x54, 0x05, 0x00, 0x41, 0x10, 0x50, 0x40, 0x29, 0x90, 0x80, 0x14, 0x10, 0x58,
  0x21, 0x04, 0x44, 0x48, 0x81, 0x00, 0x4a, 0xa0, 0x11, 0x20, 0x55, 0x00, 0x02, 0x08, 0x41, 0x01, 0x08, 0x2a, 0x55, 0x94,
  0xa2, 0x50, 0x10, 0x20, 0x08, 0x80, 0x8a, 0x92, 0x2a, 0x10, 0x00, 0x00, 0x01, 0xa8, 0x00, 0x88, 0x00, 0x10, 0x14, 0x05,
  0x01, 0xa8, 0xaa, 0x2a, 0x45, 0x14, 0x05, 0x2a, 0x01, 0x2a, 0x00, 0x82, 0x5a, 0x05, 0x42, 0x11, 0x54, 0x90, 0x80, 0x8a,
  0x11, 0x28, 0x15, 0x15, 0x68, 0xa0, 0x06, 0x61, 0x58, 0xa0, 0xa1, 0x05, 0x00, 0x22, 0xaa, 0x00, 0x40, 0x41, 0x41, 0x11,
  0x48, 0x91, 0xa0, 0x12, 0xa8, 0xa8, 0xa2, 0x08, 0x04, 0x2a, 0x2a, 0x21, 0x00, 0x11, 0x10, 0x20, 0xa0, 0x04, 0x08, 0x54,
  0x00, 0x48, 0x28, 0x80, 0x08, 0xa2, 0xaa, 0x40, 0x01, 0x50, 0x15, 0x40, 0xa9, 0x0a, 0x5a, 0x98, 0x2a, 0x18, 0x0a, 0x80,
  0x81, 0x8a, 0x02, 0x54, 0x40, 0x25, 0x00, 0x4a, 0x40, 0x81, 0x42, 0x85, 0x10, 0x20, 0x48, 0x04, 0x04, 0x10, 0x59, 0x88,
  0x00, 0x00, 0x02, 0x00, 0x01, 0x51, 0x10, 0x4a, 0x00, 0x42, 0x0a, 0x00, 0xa8, 0x4a, 0x11, 0x95, 0x48, 0x01, 0x40, 0x10,
  0x0a, 0x55, 0x00, 0x00, 0x08, 0x40, 0x02, 0x85, 0x42, 0x50, 0xa2, 0xaa, 0x48, 0x05, 0x4a, 0x88, 0x2a, 0x05, 0x54, 0x05,
  0xa1, 0xaa, 0x10, 0x55, 0x61, 0x00, 0x02, 0x02, 0x08, 0x80, 0x08, 0x80, 0x88, 0x02, 0x00, 0x00, 0x05, 0x41, 0x45, 0x29,
  0x00, 0xa2, 0x81, 0x02, 0x85, 0xaa, 0x44, 0x00, 0x00, 0xa0, 0xaa, 0x6a, 0x55, 0x55, 0x85, 0x2a, 0x0a, 0xa1, 0xaa, 0xa0,
  0x05, 0x00, 0x20, 0x08, 0x91, 0x02, 0x11, 0x00, 0x01, 0x18, 0x28, 0x05, 0x0a, 0x84, 0x02, 0x14, 0x20, 0x10, 0x18, 0x81,
  0x90, 0x00, 0x04, 0x28, 0x00, 0x84, 0x95, 0x58, 0x85, 0x20, 0x88, 0x52, 0x01, 0x15, 0x0a, 0x81, 0x25, 0x10, 0x48, 0x02,
  0x05, 0x00, 0x54, 0x6a, 0x85, 0x52, 0xa0, 0x01, 0x00, 0x94, 0x54, 0x80, 0x4a, 0x01, 0x21, 0x51, 0x00, 0x51, 0x69, 0x94,
  0x0a, 0x01, 0x28, 0x22, 0x51, 0x05, 0x50, 0xa8, 0x04, 0x01, 0x08, 0x55, 0x55, 0x80, 0x08, 0x84, 0x80, 0x10, 0xaa, 0x54,
  0x85, 0x00, 0x00, 0x81, 0x85, 0x2a, 0x41, 0x01, 0x8a, 0x0a, 0x05, 0x00, 0x40, 0x69, 0x85, 0x0a, 0x44, 0xa1, 0x4a, 0x95,
  0x52, 0x5a, 0xa1, 0x10, 0x22, 0xa8, 0x54, 0x58, 0x22, 0x20, 0x95, 0x52, 0x20, 0x55, 0x41, 0x05, 0xa0, 0x54, 0x00, 0x20,
  0x88, 0x02, 0x00, 0x0a, 0x01, 0x20, 0x05, 0x12, 0x10, 0x28, 0x14, 0x08, 0x00, 0x12, 0x80, 0x08, 0xa0, 0x5a, 0x80, 0x20,
  0x15, 0x00, 0x80, 0x12, 0xa8, 0xa8, 0x48, 0x10, 0x5a, 0x68, 0x56, 0x00, 0x6a, 0x15, 0x25, 0x44, 0x28, 0x0a, 0xa0, 0x2a,
  0x54, 0x01, 0x5a, 0x05, 0x80, 0x10, 0x0a, 0x4a, 0x80, 0x44, 0x51, 0x51, 0x11, 0x2a, 0xa2, 0x42, 0x05, 0x2a, 0x44, 0xa0,
  0x12, 0x92, 0x2a, 0x14, 0x48, 0x04, 0x11, 0x40, 0xaa, 0x02, 0x80, 0x50, 0x61, 0x00, 0x02, 0x01, 0x48, 0x95, 0x0a, 0xa1,
  0x00, 0x2a, 0x11, 0x14, 0x00, 0x00, 0x86, 0x42, 0x08, 0x21, 0x02, 0x02, 0x82, 0x08, 0x28, 0x80, 0x48, 0x00, 0x42, 0x00,
  0x00, 0x21, 0x10, 0x2a, 0x02, 0xa8, 0x02, 0x80, 0x0a, 0x04, 0x90, 0x14, 0x02, 0x11, 0x51, 0x04, 0x82, 0x00, 0x08, 0x80,
  0x0a, 0x01, 0x15, 0x0a, 0x08, 0x69, 0x84, 0x41, 0xa0, 0x62, 0x01, 0x20, 0x21, 0x55, 0xa0, 0x82, 0x6a, 0x20, 0x54, 0x60,
  0x95, 0x80, 0x00, 0x80, 0x00, 0x42, 0x0a, 0x4a, 0x04, 0x40, 0x84, 0x22, 0xa1, 0x02, 0x21, 0xa2, 0xa4, 0x82, 0x40, 0x85,
  0x40, 0x01, 0x0a, 0x52, 0xa2, 0x12, 0x28, 0x42, 0x54, 0x88, 0x00, 0xa0, 0x44, 0xa2, 0x85, 0x04, 0xa8, 0x1a, 0x21, 0x56,
  0x41, 0x82, 0x50, 0x28, 0x94, 0xa2, 0x20, 0x62, 0x80, 0x10, 0x20, 0x8a, 0x2a, 0x00, 0x41, 0x54, 0x81, 0x00, 0x2a, 0xa0,
  0x6a, 0x04, 0x00, 0x00, 0x88, 0x00, 0x14, 0x80, 0x42, 0x18, 0x05, 0x22, 0xaa, 0x04, 0x08, 0x05, 0x09, 0x80, 0x2a, 0x52,
  0x84, 0x2a, 0x04, 0x20, 0x58, 0x51, 0x0a, 0x41, 0x14, 0x9a, 0xa8, 0x80, 0x4a, 0x11, 0x20, 0x11, 0x80, 0x52, 0x15, 0x10,
  0x15, 0x80, 0x0a, 0xa8, 0x80, 0x40, 0x08, 0x06, 0x00, 0x08, 0x12, 0x00, 0x00, 0x88, 0x15, 0x58, 0x50, 0x01, 0x01, 0x28,
  0x01, 0x40, 0x29, 0x0a, 0x04, 0x44, 0x40, 0x11, 0x2a, 0x50, 0x12, 0x40, 0x80, 0xaa, 0x80, 0x52, 0x80, 0x40, 0x01, 0x69,
  0x28, 0x08, 0xa8, 0x00, 0x08, 0xa4, 0x55, 0x01, 0x02, 0x88, 0x40, 0x15, 0x51, 0x81, 0x28, 0x20, 0x14, 0x95, 0x08, 0x80,
  0x12, 0xa8, 0x0a, 0x0a, 0x54, 0x14, 0x50, 0x40, 0x80, 0x00, 0x88, 0x0a, 0xa8, 0x10, 0x00, 0x20, 0x2a, 0x84, 0x4a, 0x85,
  0x00, 0x11, 0x2a, 0xa0, 0x84, 0x40, 0x28, 0x82, 0xa6, 0x6a, 0x09, 0x2a, 0xaa, 0x0a, 0x4a, 0x54, 0x09, 0x44, 0x84, 0x08,
  0x20, 0x0a, 0x18, 0x21, 0x00, 0x0a, 0x02, 0x45, 0x40, 0xa1, 0x40, 0x81, 0x10, 0x14, 0x00, 0x29, 0x80, 0x8a, 0xa8, 0x22,
  0x88, 0x58, 0x05, 0x15, 0x00, 0x14, 0x41, 0x84, 0x00, 0x50, 0x01, 0xa0, 0x02, 0x08, 0x54, 0x55, 0x12, 0x55, 0xa0, 0x92,
  0x04, 0x52, 0x08, 0x00, 0x0a, 0x28, 0x20, 0x80, 0x50, 0x04, 0xa8, 0x2a, 0x62, 0x00, 0x40, 0x01, 0x54, 0xa2, 0x80, 0xaa,
  0x40, 0x04, 0x0a, 0x20, 0x00, 0x49, 0xa0, 0x56, 0x0a, 0x42, 0x94, 0x00, 0x20, 0x80, 0x02, 0x21, 0x04, 0x04, 0x0a, 0x28,
  0x05, 0x41, 0x21, 0x0a, 0x95, 0x02, 0x14, 0x80, 0x14, 0x62, 0x41, 0x01, 0x82, 0x10, 0x00, 0x00, 0xa1, 0x5a, 0x00, 0x50,
  0x45, 0x05, 0x40, 0x55, 0x1a, 0x00, 0xa1, 0x50, 0x55, 0x15, 0x89, 0x2a, 0x04, 0x55, 0x15, 0x05, 0x22, 0x14, 0x41, 0x55,
  0x44, 0x11, 0x40, 0x14, 0x11, 0x01, 0x06, 0x00, 0x20, 0x45, 0x11, 0x01, 0x10, 0x15, 0x0a, 0x52, 0x04, 0x28, 0x46, 0x68,
  0x46, 0x08, 0x04, 0x88, 0x08, 0x00, 0x00, 0x28, 0x40, 0x02, 0x14, 0x14, 0x04, 0x42, 0x85, 0x48, 0x81, 0x28, 0x01, 0x82,
  0xaa, 0x04, 0x10, 0x11, 0x50, 0x54, 0x51, 0x11, 0x10, 0x82, 0x80, 0x22, 0x15, 0x21, 0xa1, 0x04, 0x40, 0x15, 0x20, 0x00,
  0x04, 0x50, 0xa4, 0x02, 0x10, 0x15, 0x01, 0x02, 0x00, 0x68, 0x0a, 0x00, 0x50, 0x15, 0x00, 0x04, 0xa2, 0x06, 0x00, 0x40,
  0x14, 0x02, 0x51, 0x80, 0x15, 0x14, 0x84, 0xaa, 0x50, 0x50, 0x04, 0x25, 0x42, 0x41, 0x20, 0x96, 0x00, 0x20, 0x08, 0x15,
  0x20, 0x20, 0x42, 0x90, 0x0a, 0x80, 0x0a, 0x02, 0xa8, 0x16, 0x05, 0x0a, 0x54, 0xa8, 0x4a, 0xa9, 0x2a, 0x04, 0x08, 0xa5,
  0x00, 0x25, 0x88, 0x44, 0x40, 0x41, 0xa9, 0x2a, 0xaa, 0x8a, 0x40, 0x50, 0x88, 0x88, 0x02, 0x15, 0x44, 0x00, 0x40, 0x8a,
  0x12, 0x82, 0xaa, 0x50, 0x41, 0x55, 0xa8, 0x08, 0x40, 0x08, 0xa8, 0x80, 0x2a, 0x09, 0x01, 0x20, 0x44, 0x85, 0x51, 0x55,
  0x55, 0xa1, 0x14, 0x80, 0x55, 0xa5, 0x14, 0xa8, 0x2a, 0x54, 0x08, 0x05, 0x18, 0x00, 0x45, 0x85, 0x4a, 0x01, 0x28, 0x88,
  0x22, 0x20, 0x10, 0x10, 0xa9, 0x00, 0x00, 0x50, 0xa0, 0x00, 0x14, 0x00, 0x14, 0x06, 0xa8, 0x00, 0x02, 0x05, 0x40, 0xa1,
  0x82, 0x8a, 0x0a, 0x54, 0x51, 0x54, 0x81, 0x42, 0x84, 0x2a, 0x85, 0x04, 0x02, 0x88, 0x42, 0x0a, 0xa0, 0x04, 0x5a, 0x95,
  0x15, 0x04, 0x54, 0x08, 0x00, 0x44, 0x54, 0x24, 0x11, 0x02, 0xa0, 0xaa, 0x12, 0x04, 0xa0, 0x44, 0x08, 0x44, 0x00, 0x02,
  0x2a, 0x84, 0x48, 0x55, 0x00, 0xa0, 0x0a, 0x08, 0x40, 0x55, 0x05, 0x09, 0x20, 0x54, 0x54, 0x01, 0x15, 0x08, 0x02, 0x08,
  0x00, 0xa8, 0x42, 0x81, 0x05, 0x6a, 0x80, 0x51, 0x08, 0xa8, 0x40, 0x80, 0x01, 0x05, 0x1a, 0x00, 0x54, 0x2a, 0x21, 0x14,
  0x54, 0x0a, 0x28, 0x02, 0x50, 0xa0, 0x85, 0x52, 0x11, 0x14, 0x00, 0x14, 0x22, 0x02, 0x08, 0x48, 0x11, 0x20, 0x55, 0x20,
  0x00, 0xa1, 0x08, 0x04, 0x22, 0x40, 0x41, 0x85, 0x10, 0x28, 0x0a, 0x15, 0x2a, 0x00, 0xa5, 0x90, 0x08, 0xa1, 0x80, 0x94,
  0x00, 0x50, 0x81, 0x48, 0x09, 0x0a, 0x05, 0x11, 0x15, 0x05, 0x20, 0x21, 0x02, 0x10, 0x21, 0x55, 0x45, 0x85, 0x98, 0x10,
  0x55, 0x05, 0x50, 0x01, 0x09, 0x00, 0x14, 0x01, 0x50, 0x08, 0x10, 0x05, 0x00, 0x10, 0x11, 0x00, 0x54, 0x41, 0x49, 0x25,
  0x16, 0x00, 0x01, 0x94, 0x8a, 0x2a, 0x05, 0x50, 0x58, 0xa1, 0x42, 0x50, 0x95, 0x2a, 0x01, 0xaa, 0x22, 0x2a, 0x01, 0x56,
  0x54, 0x50, 0x28, 0x28, 0x28, 0x54, 0x41, 0x55, 0x8a, 0x00, 0x04, 0xa0, 0x50, 0x00, 0x10, 0x81, 0x02, 0xa0, 0x12, 0x10,
  0x05, 0x50, 0x14, 0x42, 0x05, 0x08, 0x05, 0xa8, 0x10, 0x01, 0x00, 0xa4, 0x4a, 0x45, 0x05, 0x2a, 0x94, 0x58, 0x55, 0x61,
  0x4a, 0x81, 0x48, 0x05, 0x15, 0x00, 0xa2, 0x2a, 0x02, 0x18, 0x28, 0x10, 0x02, 0x40, 0x10, 0x20, 0x84, 0x8a, 0x04, 0x10,
  0x00, 0x22, 0x2a, 0x10, 0x50, 0x04, 0x02, 0x80, 0x81, 0x02, 0x00, 0x24, 0x0a, 0xa5, 0x60, 0x01, 0x01, 0xa0, 0x28, 0x2a,
  0x05, 0x50, 0x1a, 0x55, 0x82, 0x08, 0x02, 0x24, 0x10, 0xa9, 0x15, 0xaa, 0x56, 0x01, 0xa8, 0x14, 0x81, 0xaa, 0x54, 0xa4,
  0x52, 0x11, 0x25, 0x00, 0xa8, 0x82, 0x00, 0x40, 0x20, 0x04, 0x51, 0x2a, 0xa0, 0x46, 0x80, 0x41, 0x04, 0x90, 0xa0, 0x14,
  0x08, 0x94, 0x24, 0x20, 0xa0, 0x48, 0x00, 0x80, 0x52, 0x29, 0x14, 0xa8, 0x96, 0xaa, 0x16, 0x55, 0xaa, 0x54, 0x05, 0xaa,
  0x21, 0x15, 0x02, 0x0a, 0x28, 0xa0, 0x52, 0x50, 0x14, 0x00, 0x42, 0xa0, 0x84, 0x08, 0x50, 0x45, 0x80, 0x40, 0x15, 0x88,
  0x2a, 0x02, 0x01, 0x14, 0x42, 0x91, 0x2a, 0x15, 0x18, 0x24, 0x54, 0x20, 0x05, 0x90, 0x2a, 0x08, 0x56, 0x01, 0x00, 0x80,
  0x02, 0x0a, 0xa2, 0x10, 0x42, 0x12, 0x04, 0x20, 0x90, 0xaa, 0x01, 0x15, 0x44, 0x80, 0xaa, 0xaa, 0x6a, 0x25, 0x08, 0xa0,
  0x54, 0x88, 0xa0, 0x82, 0x54, 0x80, 0x01, 0x15, 0x80, 0x08, 0x28, 0x00, 0x05, 0x40, 0x51, 0x01, 0x4a, 0x21, 0x54, 0x55,
  0x54, 0x41, 0x04, 0x40, 0x15, 0x55, 0x01, 0x02, 0x14, 0x05, 0x48, 0x02, 0xaa, 0x95, 0x5a, 0x18, 0x11, 0x22, 0x04, 0x68,
  0x56, 0x00, 0x60, 0x21, 0x84, 0x5a, 0x22, 0x10, 0x05, 0x08, 0x05, 0xa2, 0x08, 0x20, 0x01, 0x16, 0x41, 0x64, 0x01, 0x00,
  0x04, 0x10, 0x22, 0x00, 0x88, 0x04, 0x08, 0x80, 0x08, 0x05, 0x04, 0x45, 0x52, 0xa8, 0x00, 0x85, 0x54, 0x6a, 0xa0, 0xa4,
  0x00, 0x42, 0x04, 0x00, 0x08, 0x82, 0x00, 0x40, 0x61, 0x61, 0x52, 0x55, 0x48, 0x04, 0x84, 0x48, 0x04, 0x41, 0x11, 0x21,
  0x90, 0x20, 0x18, 0x20, 0x55, 0x00, 0x20, 0x04, 0x42, 0x84, 0x40, 0x15, 0x20, 0x01, 0x24, 0x10, 0x11, 0x50, 0x02, 0x00,
  0x85, 0x12, 0x54, 0x01, 0x14, 0x40, 0x00, 0x55, 0x80, 0x21, 0x10, 0x08, 0x10, 0xa8, 0x40, 0x00, 0x42, 0x40, 0x18, 0xa5,
  0x29, 0x20, 0x20, 0x50, 0x44, 0x10, 0x55, 0x45, 0x81, 0x2a, 0x11, 0x02, 0x54, 0x02, 0xaa, 0x21, 0x68, 0x01, 0x50, 0x40,
  0x01, 0xa8, 0xa2, 0x42, 0x08, 0x55, 0x55, 0x04, 0x54, 0x81, 0x20, 0x60, 0x01, 0x96, 0x08, 0x10, 0x42, 0x04, 0x52, 0x20,
  0x02, 0x08, 0x15, 0x28, 0x54, 0x44, 0x24, 0x24, 0x18, 0x90, 0x0a, 0x04, 0x80, 0x80, 0x80, 0x10, 0xaa, 0x02, 0x11, 0x08,
  0x42, 0x88, 0x22, 0x10, 0x08, 0x00, 0x51, 0x88, 0x80, 0x12, 0x14, 0x01, 0x8a, 0x12, 0xa1, 0x8a, 0x40, 0x10, 0xa9, 0x52,
  0x21, 0x10, 0x00, 0xaa, 0x42, 0x15, 0x0a, 0x00, 0x05, 0x05, 0x14, 0xaa, 0x5a, 0x05, 0xa1, 0x0a, 0x00, 0x54, 0x05, 0x41,
  0x89, 0x00, 0xa0, 0x02, 0x02, 0x0a, 0x40, 0x21, 0x44, 0x55, 0x04, 0x00, 0x81, 0x12, 0xa1, 0x2a, 0x82, 0x22, 0x14, 0x88,
  0x28, 0x4a, 0x41, 0x15, 0x02, 0x15, 0x00, 0x01, 0x00, 0x25, 0x81, 0x02, 0x20, 0x08, 0x52, 0x51, 0x15, 0xa8, 0x50, 0x81,
  0x00, 0x15, 0x42, 0x44, 0xa0, 0x50, 0x00, 0x10, 0x14, 0x94, 0x22, 0x46, 0x29, 0x68, 0x04, 0x48, 0x14, 0x0a, 0x42, 0x55,
  0x28, 0x54, 0x2a, 0x60, 0x81, 0x42, 0xa0, 0x02, 0x00, 0x14, 0x08, 0xa0, 0x08, 0x8a, 0x2a, 0x55, 0x89, 0x51, 0x10, 0x8a,
  0x14, 0x88, 0x14, 0x28, 0x42, 0x05, 0x00, 0x22, 0x00, 0x00, 0x05, 0x00, 0x20, 0x04, 0x2a, 0x08, 0x11, 0x04, 0x40, 0x65,
  0xa8, 0x14, 0x84, 0x15, 0x40, 0xa0, 0x52, 0x15, 0x2a, 0x80, 0x2a, 0x10, 0x85, 0x42, 0x14, 0x22, 0x50, 0x05, 0x02, 0x00,
  0x82, 0x0a, 0x01, 0x52, 0xa9, 0x42, 0x80, 0x20, 0x14, 0x85, 0x08, 0x00, 0xaa, 0x15, 0x88, 0x54, 0x00, 0x12, 0x50, 0xa8,
  0x11, 0x22, 0x48, 0xa9, 0x42, 0x10, 0x54, 0x15, 0x89, 0xaa, 0x56, 0x41, 0x01, 0x0a, 0x51, 0xa8, 0x55, 0x05, 0x00, 0x20,
  0xaa, 0x40, 0x55, 0x48, 0x05, 0x00, 0x52, 0x01, 0xaa, 0x54, 0x20, 0x00, 0x04, 0xa0, 0x40, 0x20, 0x54, 0x05, 0x0a, 0x08,
  0x40, 0x20, 0x01, 0x50, 0x85, 0x2a, 0x85, 0x08, 0x01, 0xaa, 0x54, 0x15, 0x02, 0x05, 0xa0, 0x0a, 0x04, 0x85, 0x08, 0x55,
  0xa9, 0x2a, 0x44, 0x20, 0x28, 0x40, 0x21, 0x08, 0x00, 0x00, 0x80, 0xa2, 0x85, 0x0a, 0x05, 0x02, 0x80, 0x08, 0x00, 0x05,
  0x68, 0x01, 0x00, 0x02, 0x15, 0x2a, 0x44, 0x00, 0x08, 0xa1, 0x02, 0xa0, 0x14, 0xa0, 0x40, 0x48, 0x85, 0x56, 0x28, 0x54,
  0xa5, 0x8a, 0x60, 0x85, 0x44, 0x28, 0x10, 0x90, 0xaa, 0x56, 0x10, 0xa0, 0x28, 0x00, 0x80, 0x80, 0x08, 0x94, 0x02, 0x50,
  0xa5, 0x80, 0x00, 0x55, 0x00, 0xa0, 0x50, 0x82, 0x28, 0x40, 0x00, 0x00, 0x40, 0x40, 0x0a, 0xa0, 0x08, 0x00, 0x05, 0x14,
  0x50, 0x00, 0xa8, 0x02, 0x05, 0x10, 0x10, 0x40, 0x4a, 0x40, 0x94, 0x18, 0x20, 0x01, 0x51, 0x28, 0x05, 0xa1, 0x02, 0x58,
  0x11, 0x21, 0x40, 0x81, 0x40, 0x2a, 0x50, 0x00, 0x01, 0x48, 0x15, 0x0a, 0x50, 0x04, 0x14, 0x11, 0x08, 0x85, 0x28, 0x44,
  0x20, 0x40, 0x40, 0x00, 0x21, 0x00, 0x40, 0x40, 0x44, 0x94, 0x22, 0x04, 0x44, 0x05, 0x04, 0x11, 0x95, 0x42, 0x11, 0x2a,
  0x84, 0xa8, 0x02, 0x48, 0x55, 0x45, 0x94, 0x08, 0x12, 0x96, 0x01, 0xa8, 0x14, 0x8a, 0x48, 0x50, 0x81, 0x20, 0x10, 0x02,
  0x12, 0x54, 0x20, 0x14, 0x00, 0x00, 0x08, 0x00, 0xa0, 0x10, 0x00, 0x28, 0x40, 0x15, 0x20, 0x40, 0x14, 0x02, 0x04, 0x00,
  0x42, 0xa5, 0x28, 0x45, 0x90, 0x80, 0x20, 0x00, 0x40, 0x00, 0x08, 0x28, 0x81, 0x06, 0x44, 0x80, 0x0a, 0x50, 0xa1, 0x62,
  0x81, 0x4a, 0x95, 0x8a, 0x00, 0x85, 0x2a, 0x45, 0x11, 0x2a, 0x50, 0x01, 0x04, 0x4a, 0x12, 0x41, 0x05, 0x04, 0x81, 0x40,
  0x24, 0xaa, 0x50, 0x14, 0x02, 0x02, 0x00, 0xa5, 0x5a, 0x50, 0x05, 0x08, 0xa8, 0x02, 0x11, 0x52, 0x05, 0x2a, 0x0a, 0x28,
  0x54, 0x55, 0x09, 0x04, 0x28, 0x28, 0x44, 0x41, 0x81, 0x8a, 0x00, 0x05, 0x90, 0x18, 0x81, 0x00, 0x42, 0x60, 0x22, 0x00,
  0x12, 0x10, 0x42, 0x60, 0x04, 0x80, 0x4a, 0x01, 0x00, 0xa0, 0x20, 0xa0, 0x46, 0x00, 0x10, 0x28, 0x00, 0x50, 0x48, 0x01,
  0x48, 0x80, 0x02, 0x50, 0x08, 0x80, 0x50, 0x14, 0xa9, 0x20, 0x15, 0x00, 0x28, 0x16, 0x14, 0xa9, 0x50, 0x02, 0x60, 0x68,
  0xa5, 0xa8, 0x02, 0x80, 0x00, 0x45, 0x01, 0x42, 0x81, 0x2a, 0x86, 0x82, 0x62, 0x54, 0x88, 0x10, 0x04, 0x54, 0x05, 0x24,
